/**
  ******************************************************************************
  * @file    lidar_model_data_params.c
  * @author  AST Embedded Analytics Research Platform
  * @date    Sun Mar 17 17:02:16 2024
  * @brief   AI Tool Automatic Code Generator for Embedded NN computing
  ******************************************************************************
  * Copyright (c) 2024 STMicroelectronics.
  * All rights reserved.
  *
  * This software is licensed under terms that can be found in the LICENSE file
  * in the root directory of this software component.
  * If no LICENSE file comes with this software, it is provided AS-IS.
  ******************************************************************************
  */

#include "lidar_model_data_params.h"


/**  Activations Section  ****************************************************/
ai_handle g_lidar_model_activations_table[1 + 2] = {
  AI_HANDLE_PTR(AI_MAGIC_MARKER),
  AI_HANDLE_PTR(NULL),
  AI_HANDLE_PTR(AI_MAGIC_MARKER),
};




/**  Weights Section  ********************************************************/
AI_ALIGNED(32)
const ai_u64 s_lidar_model_weights_array_u64[6242] = {
  0xbd3d2be4bdef65f8U, 0xbc805f423eba8e0aU, 0x3d3f83ef3db5e877U, 0xbea167533e4ba64cU,
  0xbdc3a3d93ce7faf9U, 0xbecad25b3e4f8162U, 0xbca486a73ed81ae1U, 0xbce1a5813e3736b9U,
  0x3dd953f1bea6311cU, 0xbec2c7d6bde882cbU, 0xbd14b2debe83f162U, 0x3e624db93ebf31a5U,
  0xbe3ccc003e776ef4U, 0xbd5e8bc53e7d743aU, 0x3e71f3c83ee560bbU, 0x3e3001b63e7ccd7cU,
  0xbeeed8143e1fd07aU, 0x3eb6a97bbc39c849U, 0x3e92f877be7c95cdU, 0x3d084182be6ef8c8U,
  0xbe0268eebe20e379U, 0xbd93d5af3eb1aab1U, 0xbed4b240bec967a0U, 0xbdaedb0dbe8a31d7U,
  0x3ed5ed87bec8a5b1U, 0xbec7743cbddf5535U, 0x3eaa0416be04b160U, 0x3eeb1a463e86547dU,
  0x3dd68b98be39fec6U, 0x3edff6803e1027d1U, 0x3d9464d1be89057dU, 0x3ed653a9be5f6488U,
  0xbe90e79bbece15c8U, 0xbe9de6f73ea458e8U, 0xbedf9ba43e814fb7U, 0xbe18bb1f3d400310U,
  0x3e15f2df3e0f1470U, 0xbe45c6363bfefe7eU, 0xbd219422bef38ca3U, 0x3e23b0e33ec1e3a8U,
  0x3d063ba7bebb6a3eU, 0x3ee605743d63cf30U, 0xbea392fc3ef34bd0U, 0xbd06f3963e0a9fc4U,
  0x3ebb487e3e7af6eaU, 0xbe3b52acbeaa383cU, 0x3d9d0980bd305b5eU, 0x3ba2f9b63e68b047U,
  0x3d0b8d65bcf15ea9U, 0xbd646e083cac47bcU, 0x3d5695e8be01ca27U, 0xbe0de743bdf5bc2fU,
  0xbcdd81f8bdc1d1b9U, 0xbe14d353be168e57U, 0xbe18495bbddd81f8U, 0xbd646e083ba6217aU,
  0xbda99782bd83852bU, 0xbd33f99aU, 0xbe03852bbdeed020U, 0xbe168e573dbae5a9U,
  0x3e2b52863d9bbf63U, 0x3e1d7a66bba6217aU, 0x3d94d3533df5bc2fU, 0x3d0a713bbe0c2c3fU,
  0xbadd81f8be14d353U, 0xbe35b49e3dbae5a9U, 0xbceb5a18bdbae5a9U, 0xbe14d3533e0c2c3fU,
  0xbe0fa2473d26217aU, 0x3d83852bbda99782U, 0xbdc1d1b93de7e410U, 0x3cb3f99a3e14d353U,
  0xbdc547c1bdb76fa2U, 0xbd5695e8bd4fa9d9U, 0xbdc547c13e2d0d8aU, 0xbccfa9d9be299782U,
  0xbdeb5a183d9f356aU, 0xbe0a713bbd98495bU, 0xbe1f356a3c98495bU, 0xbdb76fa23e18495bU,
  0xbd26217abd03852bU, 0xbbdd81f8bd9bbf63U, 0x3dfca83fbccfa9d9U, 0x3e1a045fbb5d81f8U,
  0x3ceb5a183ddd81f8U, 0xbe0c2c3f3dc8bdc9U, 0x3d0a713bbc98495bU, 0x3e0c2c3f3d646e08U,
  0xbcb3f99abcb3f99aU, 0x3e0c2c3f3d83852bU, 0x3deb5a183bdd81f8U, 0x3e14d3533add81f8U,
  0x3e03852b3db3f99aU, 0x3df5bc2fbe1f356aU, 0xbda2ab723e0c2c3fU, 0xbdc1d1b9bccfa9d9U,
  0x3add81f8bc26217aU, 0x3deb5a183da2ab72U, 0x3da2ab723e168e57U, 0x3e22ab72bc26217aU,
  0x3d8de7433ba6217aU, 0x3dbae5a93cf93237U, 0xbdcfa9d9bc793237U, 0x3dd31fe13d5695e8U,
  0xbd4fa9d9be1f356aU, 0xbe14d353bd646e08U, 0xbda99782bdb3f99aU, 0x3e14d3533d8de743U,
  0xbe392aa6bda6217aU, 0x3d8de743bda2ab72U, 0x3d3ae5a93e115d4bU, 0x3db083923d1f356aU,
  0x3d5d81f83da6217aU, 0xbe14d3533d0a713bU, 0xbdeb5a18bd94d353U, 0xbd0a713b3e1a045fU,
  0xbc26217abe3ae5a9U, 0xbdb76fa2bde0f800U, 0x3d4fa9d93d8a713bU, 0x3d115d4bbe27dc7eU,
  0xbe08b6373e0fa247U, 0xbd915d4b3ddd81f8U, 0xbd0a713b3db08392U, 0xbe323e963d5d81f8U,
  0xbcf932373e06fb33U, 0x3e0fa247bdf93237U, 0x3ba6217abe168e57U, 0xbe115d4b3e1d7a66U,
  0x3d2d0d8a3cf93237U, 0xbe323e963d5d81f8U, 0x3ceb5a183d48bdc9U, 0x3e1bbf633d9f356aU,
  0xbde46e083d2d0d8aU, 0x3ba6217a3d83852bU, 0x3df932373de46e08U, 0x3dcc33d1bdf93237U,
  0x3e000f243d793237U, 0xbdfca83fbd8de743U, 0xbd3ae5a93dcc33d1U, 0xbdda0bf0bd18495bU,
  0xbd33f99abd646e08U, 0xbdc8bdc93d8de743U, 0x3dd31fe13d8a713bU, 0xbe08b6373e0c2c3fU,
  0xbd41d1b9bcc1d1b9U, 0xbe06fb333e03852bU, 0xbe18495bbc5d81f8U, 0xbe0a713bbadd81f8U,
  0x3b5d81f83e1bbf63U, 0xbdf5bc2fbdf24628U, 0xbd48bdc9be05402fU, 0x3d26217a3c98495bU,
  0x3e308392bd8a713bU, 0x3ddd81f83e41d1b9U, 0xbe376fa2bde0f800U, 0xbe4016b5bda6217aU,
  0xbe03852bbadd81f8U, 0x3d6b5a183d115d4bU, 0xbe115d4b3c5d81f8U, 0xbd9bbf633df93237U,
  0x3de0f800bd915d4bU, 0x3deb5a18bde0f800U, 0x3d1f356a3da6217aU, 0x3e06fb33bd8a713bU,
  0xbdbe5bb13d646e08U, 0xbe26217abdcc33d1U, 0x3dad0d8abd0a713bU, 0x3d115d4bbdf24628U,
  0xbc5d81f8be05402fU, 0x3d94d3533e14d353U, 0xbd115d4bbb5d81f8U, 0x3e0a713bbc98495bU,
  0x3d8de7433df5bc2fU, 0x3e01ca27bc26217aU, 0x3d98495bbe01ca27U, 0x3c41d1b93cf93237U,
  0x3e05402f3dad0d8aU, 0x3da99782be246676U, 0x3e1a045f3ccfa9d9U, 0xbe05402fbbdd81f8U,
  0x3e08b637bdad0d8aU, 0x3c41d1b93c98495bU, 0xbe08b637bd94d353U, 0x3da997823b5d81f8U,
  0x3dc1d1b93d48bdc9U, 0x3dfca83f3d115d4bU, 0xbe1bbf63bde46e08U, 0xbe2d0d8a3e0fa247U,
  0x3deed0203dd695e8U, 0x3db76fa200000000U, 0xbd03852b3c793237U, 0x3dcc33d1bdda0bf0U,
  0x3d26217abe05402fU, 0xbd18495b3add81f8U, 0x3df24628bd3ae5a9U, 0xbda6217abc0a713bU,
  0x3db08392bdcfa9d9U, 0xbe0de7433dc8bdc9U, 0xbd793237bcb3f99aU, 0x3ceb5a183e26217aU,
  0x3d48bdc9bd33f99aU, 0xbdf5bc2f3d8a713bU, 0x3cc1d1b93e1a045fU, 0x3bdd81f83ca6217aU,
  0x3cc1d1b93dcfa9d9U, 0xbccfa9d9bc8a713bU, 0x3c8a713bbd5d81f8U, 0x3d646e083ddd81f8U,
  0xbd83852bbda6217aU, 0x3e392aa63e20f06eU, 0xbc98495b3dad0d8aU, 0x3da6217a3dcc33d1U,
  0x3d03852b3deed020U, 0xbc5d81f83da2ab72U, 0xbc7932373de7e410U, 0xbe168e573c793237U,
  0xbd646e08bd86fb33U, 0xbe3ca0ad3e01ca27U, 0xbc5d81f8bda6217aU, 0x3db083923e08b637U,
  0x3db76fa23d5d81f8U, 0x3d33f99abe01ca27U, 0xbd18495bbd4fa9d9U, 0xbe0fa2473e0fa247U,
  0xbd8a713b3ccfa9d9U, 0x3da6217abdad0d8aU, 0xbd41d1b93de0f800U, 0xbdbe5bb1be1bbf63U,
  0x3ba6217a3dbae5a9U, 0xbd26217a3e246676U, 0x3c793237be03852bU, 0x3e0de7433e115d4bU,
  0xbd6b5a183ba6217aU, 0xbd3ae5a9bc8a713bU, 0x3e35b49ebe1a045fU, 0x3e20f06e3d41d1b9U,
  0x3e0c2c3fbd94d353U, 0xbda99782bd2d0d8aU, 0x3da6217abe13184fU, 0xbe18495b3d793237U,
  0xbb5d81f8bdb76fa2U, 0x3e03852bbd5d81f8U, 0x3d86fb333cc1d1b9U, 0xbdf24628bdd695e8U,
  0xbd18495b3e168e57U, 0xbdad0d8a3d6b5a18U, 0x3cb3f99a3dbe5bb1U, 0x3ceb5a18be26217aU,
  0xbe2b52863dc8bdc9U, 0xbd26217a3de46e08U, 0xbddd81f8be0a713bU, 0xbcdd81f8be0de743U,
  0xbdc1d1b9bdf5bc2fU, 0x3ca6217a3c0a713bU, 0x3db76fa2bd5695e8U, 0x3e000f24bc98495bU,
  0x3e1f356a3d5695e8U, 0xbd646e08bc793237U, 0xbdb083923e000f24U, 0x3d5695e8bd18495bU,
  0xbe1bbf63be1bbf63U, 0xbdb08392bba6217aU, 0x3da6217a3dd31fe1U, 0xbd2d0d8abe246676U,
  0x3e115d4bbceb5a18U, 0xbdbe5bb1bca6217aU, 0xbe1bbf633d0a713bU, 0x3d9f356abe08b637U,
  0xbdbae5a9be33f99aU, 0xbc0a713bbcf93237U, 0x3d724628bdd31fe1U, 0xbe1d7a663bdd81f8U,
  0x3d915d4bbde46e08U, 0x3ca6217abdf24628U, 0xbd98495b3e115d4bU, 0xbd0a713b3df93237U,
  0x3d26217a3e06fb33U, 0xbe000f243d86fb33U, 0xbe323e963dbae5a9U, 0x3cc1d1b93bdd81f8U,
  0xbe26217abdcc33d1U, 0xbd3ae5a93c0a713bU, 0x3e03852bU, 0xbe35b49ebd115d4bU,
  0x3e01ca273db08392U, 0xbdad0d8abdcfa9d9U, 0x3c5d81f8bdeed020U, 0xbdc8bdc93d48bdc9U,
  0xbe392aa6be392aa6U, 0xbb5d81f8bdf93237U, 0xbccfa9d93ddd81f8U, 0x3dcc33d1bc98495bU,
  0x3db3f99a3c26217aU, 0xbc41d1b93dbe5bb1U, 0xbe41d1b93dbe5bb1U, 0x3dc8bdc9bdb76fa2U,
  0x3d0a713b3add81f8U, 0xbd7932373df93237U, 0x3d800f243ba6217aU, 0xbd18495bbda99782U,
  0xbdbae5a9bd18495bU, 0x3e41d1b93d03852bU, 0x3ca6217abdbe5bb1U, 0xbd915d4b3d33f99aU,
  0xbe06fb33bceb5a18U, 0xbdc547c13d83852bU, 0xbcb3f99abd0a713bU, 0x3e05402fbdd31fe1U,
  0x3e14d3533e20f06eU, 0x3d1f356abe0fa247U, 0xbda997823d9f356aU, 0x3d48bdc93deb5a18U,
  0x3d9bbf633e1d7a66U, 0x3d9f356abc41d1b9U, 0xbca6217abdcfa9d9U, 0x3d646e08be05402fU,
  0xbe115d4b3dc8bdc9U, 0x3db0839200000000U, 0xbdbae5a9bd86fb33U, 0x3e2d0d8abba6217aU,
  0x3e2d0d8a3dc8bdc9U, 0x3d41d1b93d48bdc9U, 0x3e0c2c3f3d6b5a18U, 0xbdb083923db08392U,
  0xbe0de7433d03852bU, 0xbe03852bbde0f800U, 0x3d33f99a3cdd81f8U, 0x3e0de743bda99782U,
  0x3d8a713b3df24628U, 0x3de0f8003e1a045fU, 0x3d18495b3d5d81f8U, 0xbdad0d8abd03852bU,
  0xbd800f24bcdd81f8U, 0xbdda0bf0be14d353U, 0xbdcfa9d9bd915d4bU, 0x3d41d1b9badd81f8U,
  0xbdf24628be2d0d8aU, 0xbd98495b3d915d4bU, 0x3db3f99a3e115d4bU, 0x3d8de7433d1f356aU,
  0xbe4a78cd3e000f24U, 0xbdd31fe1bd724628U, 0x3d5d81f83df5bc2fU, 0xbde0f800be0c2c3fU,
  0x3dc8bdc9bdbae5a9U, 0x3df24628bda6217aU, 0xbceb5a18be168e57U, 0xbd9bbf633e0fa247U,
  0xbadd81f83d915d4bU, 0x3d8de743be2d0d8aU, 0x3e1a045fbdc547c1U, 0x3ccfa9d93dc8bdc9U,
  0xbdda0bf03d5d81f8U, 0x3de0f800bd9bbf63U, 0x3cdd81f83e392aa6U, 0xbe2b52863e0a713bU,
  0x3da997823dda0bf0U, 0x3d5d81f8bdc1d1b9U, 0xbdc547c1bcb3f99aU, 0xbe26217abceb5a18U,
  0x3dda0bf03e0a713bU, 0xbd0a713b3d9f356aU, 0xbe01ca273d98495bU, 0xbe376fa2bd724628U,
  0x3dc547c1bdfca83fU, 0xbd915d4b3d724628U, 0x3e1d7a66bd793237U, 0x3c5d81f83e27dc7eU,
  0xbd8de743bd18495bU, 0x3e115d4b3dda0bf0U, 0x3ceb5a183c26217aU, 0x3db083923d724628U,
  0xbde7e410bba6217aU, 0xbe1bbf63be27dc7eU, 0xbdb76fa23ddd81f8U, 0x3ccfa9d93e0de743U,
  0xbcb3f99a3e0fa247U, 0xbdda0bf03e376fa2U, 0xbceb5a18badd81f8U, 0x3dad0d8abdbe5bb1U,
  0xbd2d0d8a3e1bbf63U, 0xbda99782bd2d0d8aU, 0x3db3f99a3cb3f99aU, 0x3d5695e83d5695e8U,
  0x3d724628bcf93237U, 0x3e168e573e18495bU, 0xbdfca83fbdb76fa2U, 0x3dfca83f3d83852bU,
  0x3e05402f3da2ab72U, 0xbd2d0d8abe03852bU, 0xbd86fb33bd4fa9d9U, 0x3c0a713bbe3ae5a9U,
  0x3d8a713bbe299782U, 0x3c7932373d646e08U, 0xbdeed020be05402fU, 0x3e392aa63d41d1b9U,
  0x3e33f99a3ddd81f8U, 0x3ceb5a18bde7e410U, 0xbd33f99abdbe5bb1U, 0x3dbae5a93e13184fU,
  0x3dc8bdc9bc98495bU, 0x3d724628bccfa9d9U, 0xbdeed0203dfca83fU, 0xbd83852bbe308392U,
  0x3d03852b3d6b5a18U, 0xbd18495bbd1f356aU, 0x3d26217abd2d0d8aU, 0xbe1f356a3ccfa9d9U,
  0x3d5695e8bdc8bdc9U, 0xbe0c2c3fbdeb5a18U, 0xbdd31fe1bdcc33d1U, 0xbdf93237bdb08392U,
  0x3d2d0d8a3d4fa9d9U, 0xbd7246283d98495bU, 0xbdbe5bb1be03852bU, 0x3df5bc2fbdf5bc2fU,
  0x3d33f99abde0f800U, 0xbbdd81f83df24628U, 0x3d915d4b3d646e08U, 0xbc26217abcc1d1b9U,
  0xbdbe5bb13d646e08U, 0xbe115d4b3dd31fe1U, 0xbdcfa9d9bdf93237U, 0xbdf24628bceb5a18U,
  0x3cc1d1b93d793237U, 0xbdd695e8bdcc33d1U, 0x3c98495bbdf93237U, 0x3c8a713bbba6217aU,
  0x3d646e083d915d4bU, 0xbdeb5a18be08b637U, 0x3df246283e01ca27U, 0xbe376fa2bd8a713bU,
  0xbd5d81f83db76fa2U, 0xbd915d4bbbdd81f8U, 0xbc8a713bbe438cbdU, 0xbb5d81f83d5695e8U,
  0x3e246676bd94d353U, 0xbdb083923d94d353U, 0x3db083923e08b637U, 0xbd9bbf63bd26217aU,
  0x3e13184fbd18495bU, 0xbe13184f3e115d4bU, 0x3cf932373c8a713bU, 0x3de0f8003e1a045fU,
  0x3d115d4b3e3ca0adU, 0x3e20f06e3d6b5a18U, 0xbdd695e8bdd695e8U, 0xbe06fb333e1a045fU,
  0x3e18495b3dcfa9d9U, 0xbe06fb333df5bc2fU, 0xbd724628bd6b5a18U, 0x3d9f356a3d915d4bU,
  0xbba6217a3c793237U, 0xbe13184fbe115d4bU, 0xbd915d4b3cc1d1b9U, 0xbe1bbf63be20f06eU,
  0xbd800f24badd81f8U, 0xbe0fa247bdb3f99aU, 0xbd915d4bbd6b5a18U, 0xbd41d1b9bd800f24U,
  0xbd115d4b00000000U, 0x3cf932373e4547c1U, 0xbba6217a3e1f356aU, 0xbdbae5a93d0a713bU,
  0xbe115d4bbe376fa2U, 0x3d18495bbe1a045fU, 0x3e000f24bde0f800U, 0x3db76fa23d9bbf63U,
  0x3d9bbf63be26217aU, 0x3d2d0d8abd4fa9d9U, 0x3da997823d26217aU, 0x3d26217abdbe5bb1U,
  0x3dd695e83e18495bU, 0x3e000f243dd31fe1U, 0x3d48bdc93de7e410U, 0x3dd695e83df93237U,
  0xbe115d4b3cf93237U, 0x3c26217a3e392aa6U, 0xbdad0d8a3c5d81f8U, 0x3d915d4b3dc8bdc9U,
  0x3e323e96bdb08392U, 0xbd26217a3ca6217aU, 0x3ba6217a3e2ec88eU, 0x3c41d1b93e438cbdU,
  0x3d115d4bbe1d7a66U, 0xbe000f243dd31fe1U, 0xbd3ae5a9bdf93237U, 0x3d9f356a3e41d1b9U,
  0x3e35b49e3d98495bU, 0x3d646e08bdb08392U, 0x3d8de74300000000U, 0x3d8a713bbc793237U,
  0xbe03852bbdd695e8U, 0x3e05402fbe26217aU, 0x3deb5a18bd98495bU, 0xbd18495bbceb5a18U,
  0x3c98495b3e03852bU, 0xbe1f356abde46e08U, 0xbd2d0d8a3c0a713bU, 0x3dcc33d1bd33f99aU,
  0xbbdd81f8be4016b5U, 0xbcf932373dcfa9d9U, 0x3dda0bf03c98495bU, 0xbe1bbf63U,
  0x3dbae5a93dda0bf0U, 0x3d4fa9d93d03852bU, 0xbe3ca0adbccfa9d9U, 0x3c0a713bbd33f99aU,
  0x3d5d81f83e08b637U, 0x3c41d1b9bccfa9d9U, 0x3c793237bd1f356aU, 0x3d793237bdc8bdc9U,
  0xbdb76fa2bd5695e8U, 0x3d2d0d8a3d26217aU, 0x3d33f99a3e4c33d1U, 0xbe0fa247bda99782U,
  0xbe299782be22ab72U, 0xbe0de743bd94d353U, 0xbe392aa6bc0a713bU, 0x3dd31fe1bd5d81f8U,
  0xbc0a713bbdd695e8U, 0xbdf24628bd18495bU, 0xbe4547c1bdbe5bb1U, 0xbe0de7433d1f356aU,
  0xbdd31fe1be4c33d1U, 0x3d5695e83d8a713bU, 0x3d33f99a3d98495bU, 0xbd5695e8bceb5a18U,
  0x3d724628bd83852bU, 0x3df24628bd5d81f8U, 0xbd115d4b3d8de743U, 0xbd915d4b3df93237U,
  0x3e2b52863d793237U, 0xbc793237bddd81f8U, 0x3e1a045fbdc8bdc9U, 0xbd915d4b3c0a713bU,
  0x3d800f243add81f8U, 0x3e0c2c3f3d94d353U, 0x3d48bdc93c41d1b9U, 0x3add81f83e27dc7eU,
  0xbe115d4b3dd695e8U, 0xbe0de7433dcc33d1U, 0xbc8a713bbe06fb33U, 0x3e06fb333e308392U,
  0x3e4702c53dad0d8aU, 0x3deb5a183cc1d1b9U, 0x3e1a045f3d646e08U, 0x3dda0bf0be000f24U,
  0x3e26217a3e01ca27U, 0xbdbe5bb1be14d353U, 0x3e168e573de0f800U, 0xbd7932373da99782U,
  0xbde7e4103ba6217aU, 0x3d5695e8be33f99aU, 0xbdc8bdc9bb5d81f8U, 0x3e35b49e3e3e5bb1U,
  0x3d03852bbd800f24U, 0x3c793237be2d0d8aU, 0x3b5d81f8bc26217aU, 0x3dd695e8bca6217aU,
  0x3e26217abdbe5bb1U, 0xbd8de743bc98495bU, 0x3da99782bd1f356aU, 0xbe0a713b3cb3f99aU,
  0xbe1bbf63bc793237U, 0xbdb76fa2bcb3f99aU, 0xbcb3f99a3d94d353U, 0xbdfca83f3dc8bdc9U,
  0x3dd31fe1bcdd81f8U, 0xbe308392bd724628U, 0x3e0c2c3fbde0f800U, 0x3c8a713b3d98495bU,
  0x3cc1d1b93dc8bdc9U, 0x3ceb5a183d86fb33U, 0x3da2ab72bd48bdc9U, 0x3e27dc7ebd0a713bU,
  0xbd9f356a3deb5a18U, 0xbe26217abd26217aU, 0xbd8de7433db76fa2U, 0x3df246283d5695e8U,
  0xbe13184fbe168e57U, 0xbe1a045fbd48bdc9U, 0x3d800f24bcdd81f8U, 0xbcc1d1b93db76fa2U,
  0x3e20f06ebe18495bU, 0xbd83852b3dda0bf0U, 0xbc793237be115d4bU, 0x3df24628be06fb33U,
  0x3c5d81f8bd26217aU, 0x3bdd81f8bc26217aU, 0x3d98495bbd48bdc9U, 0xbd793237be03852bU,
  0xbd2d0d8abc8a713bU, 0xbc793237be000f24U, 0x3d03852bbe2ec88eU, 0xbe3ae5a9bbdd81f8U,
  0xbdd695e8bdc8bdc9U, 0x3d18495bbd18495bU, 0x3d6b5a183db3f99aU, 0x3d8de7433da6217aU,
  0xbdad0d8abd8de743U, 0xbe13184f3bdd81f8U, 0xbd0a713b3c8a713bU, 0x3d9bbf63bd8a713bU,
  0x3e08b6373e1d7a66U, 0x3d3ae5a9bc26217aU, 0xbd2d0d8a3d646e08U, 0x3c793237be0a713bU,
  0x3e115d4b3e3ca0adU, 0x3d1f356a3ceb5a18U, 0xbc0a713bbd18495bU, 0xbe14d353bd1f356aU,
  0x3ccfa9d9bd5d81f8U, 0x3dda0bf03e05402fU, 0x3e0fa247bdf93237U, 0x3d646e083de46e08U,
  0x3dcc33d1be22ab72U, 0xbd646e083da2ab72U, 0x3da997823d793237U, 0x3d800f24be08b637U,
  0x3c0a713bbcdd81f8U, 0xbe0de7433e1bbf63U, 0xbde0f8003add81f8U, 0x3d3ae5a9bd2d0d8aU,
  0xbdd31fe1bd9f356aU, 0xbbdd81f8be35b49eU, 0xbe27dc7ebd41d1b9U, 0x3dd31fe1bdda0bf0U,
  0x3e14d3533e1a045fU, 0x3d793237be1f356aU, 0x3e168e57bdf5bc2fU, 0xbe13184f3da2ab72U,
  0xbd03852bbd3ae5a9U, 0xbd800f243dda0bf0U, 0x3dfca83f3e18495bU, 0xbdcc33d13e20f06eU,
  0xbd1f356a3cb3f99aU, 0xbd6b5a18be0c2c3fU, 0x3e1a045f3db76fa2U, 0xbd646e08bde7e410U,
  0x3da6217a3d98495bU, 0x3e0c2c3fbe1f356aU, 0x3cc1d1b9be14d353U, 0x3d8a713b3e0c2c3fU,
  0xbe168e57bd115d4bU, 0xbccfa9d93c5d81f8U, 0x3ddd81f8bd41d1b9U, 0x3dbae5a9bdfca83fU,
  0x3d03852bbe18495bU, 0xbe06fb33bc8a713bU, 0x3cb3f99abdfca83fU, 0xbd8a713b3d4fa9d9U,
  0x3db3f99abbdd81f8U, 0xbc41d1b93db76fa2U, 0x3c98495bbdc547c1U, 0x3e0a713bbde46e08U,
  0x3dcfa9d9bd5d81f8U, 0x3ba6217abdb08392U, 0xbd6b5a18U, 0x3ba6217a3d26217aU,
  0x3e115d4bbdd31fe1U, 0x3c41d1b9bc793237U, 0xbdd695e8bd18495bU, 0xbd1f356a3d800f24U,
  0xbc98495bbdf24628U, 0xbdc1d1b9be05402fU, 0xbd8de743bd115d4bU, 0x3d8de743bdb3f99aU,
  0xbd26217a3de46e08U, 0x3e2b52863c8a713bU, 0xbdf246283d26217aU, 0xbd800f24bd915d4bU,
  0x3e246676bda6217aU, 0xbd83852bbd98495bU, 0xbe06fb333d94d353U, 0x3d94d353be13184fU,
  0x3e0c2c3f3df93237U, 0x3e03852b3d115d4bU, 0xbd98495bbde0f800U, 0x3dd31fe1bd9f356aU,
  0x3db76fa2bcdd81f8U, 0x3d41d1b9U, 0xbd0a713bbdf93237U, 0x3d7932373d724628U,
  0x3d26217abc98495bU, 0x3d5695e8bd9bbf63U, 0xbd86fb333e115d4bU, 0x3d9f356a3df5bc2fU,
  0xbdf5bc2f3dda0bf0U, 0xbe168e57be2b5286U, 0xbe13184fbc26217aU, 0xbd793237bd5695e8U,
  0xbc793237bd48bdc9U, 0x3ba6217a3d9bbf63U, 0xbdeb5a183e0a713bU, 0x3e13184fbe08b637U,
  0xbde0f8003e05402fU, 0xbbdd81f8bda2ab72U, 0xbdd695e8bd8de743U, 0x3e1d7a66bd33f99aU,
  0xbe08b6373c8a713bU, 0xbe115d4b3cf93237U, 0xbccfa9d9bd646e08U, 0x3e392aa63bdd81f8U,
  0x3dad0d8a3df24628U, 0xbcdd81f83d0a713bU, 0x3c26217a3dfca83fU, 0x3d915d4bbdf24628U,
  0x3cf93237bdbe5bb1U, 0xbd41d1b93de46e08U, 0xbd83852b3d724628U, 0xbd83852bbd6b5a18U,
  0xbe000f24be0de743U, 0x3c5d81f83d5695e8U, 0xbcb3f99a3dbae5a9U, 0xbe115d4bbc5d81f8U,
  0xbda2ab72bd793237U, 0x3e0a713b00000000U, 0x3d5d81f83d800f24U, 0xbceb5a183d2d0d8aU,
  0xbd0a713bbe000f24U, 0xbdeed020bd86fb33U, 0x3e06fb33be392aa6U, 0xbd3ae5a9bd2d0d8aU,
  0x3dfca83fbe0a713bU, 0xbd33f99abe13184fU, 0xbe03852b3e20f06eU, 0x3d48bdc93dda0bf0U,
  0x3df93237bd0a713bU, 0x3d0a713b3dc547c1U, 0x3d6b5a18bdeb5a18U, 0x3d2d0d8a3e115d4bU,
  0x3d646e08bd5d81f8U, 0x3bdd81f83d26217aU, 0x3d915d4bbdc1d1b9U, 0xbd724628bdeed020U,
  0x3d915d4bbde0f800U, 0xbda6217a3d4fa9d9U, 0x3d800f24bd1f356aU, 0xbd8a713b3dc1d1b9U,
  0xbe000f243e06fb33U, 0xbba6217a3d800f24U, 0xbdd31fe1bda99782U, 0x3d1f356abde0f800U,
  0xbca6217abd646e08U, 0x3d9f356abdda0bf0U, 0x3d5d81f8bde7e410U, 0xbccfa9d93d5d81f8U,
  0xbd6b5a18be03852bU, 0xbd41d1b93e3ca0adU, 0x3de46e08be3ae5a9U, 0x3d41d1b9be168e57U,
  0x3dc547c13df24628U, 0x3d48bdc9bdb3f99aU, 0xbc5d81f8bdf93237U, 0x3d646e08bde0f800U,
  0x3cb3f99a3e2ec88eU, 0x3bdd81f8bd8de743U, 0x3d6b5a18be13184fU, 0xbd94d3533e323e96U,
  0x3d8a713b3e2ec88eU, 0xbc26217abd6b5a18U, 0x3dd695e8U, 0x3e323e96bc0a713bU,
  0xbd26217a3d1f356aU, 0xbd8a713b3e376fa2U, 0x3ceb5a183d4fa9d9U, 0x3c41d1b9bcdd81f8U,
  0x3db083923ccfa9d9U, 0xbe0c2c3f3deb5a18U, 0xbd33f99abd18495bU, 0x3d915d4b3d5d81f8U,
  0xbe33f99abe20f06eU, 0x3e1a045fbdb08392U, 0xbdf246283ceb5a18U, 0xbceb5a183cf93237U,
  0x3d33f99abd03852bU, 0xbdcc33d13cb3f99aU, 0x3d94d353bcc1d1b9U, 0xbc7932373c0a713bU,
  0xbe22ab72be05402fU, 0xbdd695e83e000f24U, 0x3db76fa23de0f800U, 0xbd800f24bd646e08U,
  0xbc41d1b93e299782U, 0x3d7932373e376fa2U, 0x3dad0d8abd94d353U, 0xbde7e410bccfa9d9U,
  0x3dc547c13de0f800U, 0xbdeed020bdeed020U, 0xbd3ae5a9bcf93237U, 0x3d724628bd115d4bU,
  0x3d8de743bda2ab72U, 0x3d86fb33bdf24628U, 0x3d7932373deb5a18U, 0xbdcfa9d93add81f8U,
  0x3c41d1b93add81f8U, 0xbd3ae5a93e0de743U, 0x3d18495b3e06fb33U, 0xbd5d81f83dd31fe1U,
  0x3d2d0d8abdeed020U, 0xbd41d1b9bdd31fe1U, 0xbdfca83f3d800f24U, 0xbccfa9d93d9f356aU,
  0xbe0de743be03852bU, 0xbde7e4103e08b637U, 0x3dcfa9d93d83852bU, 0xbe376fa23dc547c1U,
  0x3d41d1b93dc8bdc9U, 0x3ddd81f8be0a713bU, 0xbadd81f8be08b637U, 0x3e1bbf633db08392U,
  0x3ca6217a3d915d4bU, 0xbdbae5a93c41d1b9U, 0xbdcfa9d93e05402fU, 0x3df246283c26217aU,
  0x3e299782bca6217aU, 0xbdbae5a9bda99782U, 0x3ccfa9d93c0a713bU, 0xbe20f06e3d26217aU,
  0x3d646e08bdad0d8aU, 0xbdf5bc2fbc793237U, 0x3db76fa23c41d1b9U, 0xbd41d1b93c26217aU,
  0xbccfa9d93e0de743U, 0xbceb5a183d1f356aU, 0x3e13184f3c26217aU, 0xbbdd81f83e01ca27U,
  0x3d48bdc9bd3ae5a9U, 0xbe0de7433d0a713bU, 0x3c7932373e2d0d8aU, 0xbdf246283df93237U,
  0xbdc8bdc9bdb3f99aU, 0xbc0a713bbd98495bU, 0xbde46e083ddd81f8U, 0xbcb3f99a3e323e96U,
  0xbd7932373e18495bU, 0x3cb3f99a3d94d353U, 0xbcdd81f8bdbe5bb1U, 0x3e18495bbd115d4bU,
  0x3e01ca273deb5a18U, 0x3e06fb333de46e08U, 0x3ccfa9d9bd33f99aU, 0x3da6217abd115d4bU,
  0xbd26217abd41d1b9U, 0x3c26217a3db3f99aU, 0x3db3f99a3de0f800U, 0x3e000f24bd4fa9d9U,
  0x3d86fb333e35b49eU, 0x3dda0bf03d8a713bU, 0x3df932373e000f24U, 0x3d7246283d8a713bU,
  0xbe1bbf63bd26217aU, 0x3c26217abe2b5286U, 0xbd915d4b3bdd81f8U, 0x3e438cbd3dda0bf0U,
  0xbd41d1b9bde7e410U, 0x3d9f356a3d915d4bU, 0x3d9f356abd0a713bU, 0x3d9f356a3d8de743U,
  0xbcc1d1b93c5d81f8U, 0x3dcc33d1bde46e08U, 0xbe0a713b3c5d81f8U, 0xbd8de7433de7e410U,
  0x3e41d1b93d5695e8U, 0x3d9bbf633e41d1b9U, 0xbb5d81f83c26217aU, 0x3d8a713bbd9bbf63U,
  0xbd03852bbdf24628U, 0xbe0a713b3c5d81f8U, 0x3ccfa9d93e246676U, 0xbcc1d1b9bd8a713bU,
  0xbe168e573e1d7a66U, 0xbd9f356abe05402fU, 0xbe115d4bbcdd81f8U, 0x3e1bbf633d2d0d8aU,
  0x3e26217abe1d7a66U, 0xbdc8bdc9bd0a713bU, 0xbccfa9d9bd86fb33U, 0x3e0a713b3c0a713bU,
  0xbdbe5bb13c26217aU, 0xbceb5a183e22ab72U, 0xbe05402fbdc8bdc9U, 0xbe18495b3d8a713bU,
  0x3d8a713bbdbae5a9U, 0x3b5d81f8bd0a713bU, 0x3da2ab723dd695e8U, 0x3e2ec88e3d0a713bU,
  0xbd4fa9d93d5695e8U, 0x3add81f8bc5d81f8U, 0xbd03852b3cdd81f8U, 0x3d86fb33be13184fU,
  0xbde0f8003dd31fe1U, 0xbe0fa2473deb5a18U, 0x3d41d1b93e03852bU, 0xbdf93237bc41d1b9U,
  0x3d2d0d8a3dbe5bb1U, 0x3df5bc2f3d6b5a18U, 0xbd7932373e246676U, 0x3df5bc2f3d86fb33U,
  0xbd115d4bbe03852bU, 0x3db3f99a3e03852bU, 0x3dad0d8a3dc547c1U, 0xbbdd81f8bdd695e8U,
  0xbd6b5a183dd695e8U, 0xbdad0d8abd1f356aU, 0x3e168e573d8de743U, 0xbdcfa9d9be14d353U,
  0xbc41d1b9bd03852bU, 0xbe0a713b3d115d4bU, 0x3e05402f3d4fa9d9U, 0x3dfca83fbba6217aU,
  0x3c26217a3e13184fU, 0xbe1f356abd6b5a18U, 0xbdd31fe1be115d4bU, 0x3d800f2400000000U,
  0x3e0fa2473cc1d1b9U, 0xbdbe5bb13c793237U, 0xbd6b5a18bc793237U, 0x3e26217abcdd81f8U,
  0xbe06fb333d8a713bU, 0xbb5d81f8bd115d4bU, 0xbdc1d1b93e1d7a66U, 0x3e2d0d8a3df24628U,
  0x3dc547c13e1bbf63U, 0x3e20f06ebd4fa9d9U, 0xbd9bbf63be0c2c3fU, 0xbd41d1b9bd9bbf63U,
  0xbd94d3533dbae5a9U, 0x3e18495bbc41d1b9U, 0x3dbe5bb1bdb76fa2U, 0xbe2d0d8abcc1d1b9U,
  0x3da6217abe4702c5U, 0xbdad0d8a3d115d4bU, 0xbe4547c1be08b637U, 0xbe14d3533c98495bU,
  0x3df24628bdc547c1U, 0x3d115d4bbe05402fU, 0x3add81f8bdd31fe1U, 0x3e000f243e03852bU,
  0xbd5695e8be13184fU, 0xbdbae5a9bd83852bU, 0x3e08b637bd800f24U, 0xbe323e96bdeb5a18U,
  0xbde0f8003d18495bU, 0x3d48bdc93dc1d1b9U, 0x3d9bbf63bdd695e8U, 0x3e20f06e3d48bdc9U,
  0xbcf932373c0a713bU, 0x3df93237bd3ae5a9U, 0x3da997823d48bdc9U, 0xbdf24628bcf93237U,
  0xbc26217a3e1bbf63U, 0xbdc547c13e18495bU, 0x3ccfa9d93df5bc2fU, 0xbd1f356abdcfa9d9U,
  0xbd18495b3ccfa9d9U, 0x3e3ca0ad3e3ca0adU, 0x3e1f356a3e376fa2U, 0x3e3ae5a93e1f356aU,
  0x3e13184f3add81f8U, 0x3d4fa9d9bd6b5a18U, 0x3d0a713bbdb3f99aU, 0x3add81f8bdc547c1U,
  0x3db3f99a3d8a713bU, 0x3dd31fe13b5d81f8U, 0xbd8a713b3d5695e8U, 0x3db3f99abd18495bU,
  0x3e115d4b3d03852bU, 0xbdd31fe13deed020U, 0xbe115d4b3de0f800U, 0xbd83852bbdad0d8aU,
  0x3c8a713bbe0a713bU, 0xbc98495b3d41d1b9U, 0xbdd695e83e299782U, 0x3de46e083c8a713bU,
  0x3da99782bccfa9d9U, 0x3cc1d1b9bd6b5a18U, 0x3e13184fbe000f24U, 0xbdbe5bb1bd0a713bU,
  0x3ba6217abd9f356aU, 0x3dad0d8abe376fa2U, 0xbe0de743be3ca0adU, 0xbdbae5a9bd98495bU,
  0x3e438cbd3d33f99aU, 0x3d8de7433db3f99aU, 0xbd86fb333e27dc7eU, 0x3de46e083e2b5286U,
  0x3d4fa9d93c98495bU, 0xbdb3f99a3dad0d8aU, 0xbadd81f83e000f24U, 0x3d9f356abdf5bc2fU,
  0x3deed0203e1bbf63U, 0xbd8a713bbdb08392U, 0x3c793237bdb3f99aU, 0xbd4fa9d9bda6217aU,
  0x3ccfa9d93add81f8U, 0xbd26217a3d115d4bU, 0x3e05402f3d646e08U, 0xbe3ae5a9be08b637U,
  0x3df24628bd03852bU, 0xbe01ca27bccfa9d9U, 0x3d8a713bbd2d0d8aU, 0xbe323e96bd5695e8U,
  0xbd724628bddd81f8U, 0x3d800f243da6217aU, 0x3d915d4bbdf5bc2fU, 0xbdbe5bb13d6b5a18U,
  0x3df93237bd48bdc9U, 0x3d6b5a18bd8de743U, 0xbdf93237bc5d81f8U, 0xbdc1d1b93db3f99aU,
  0x3d98495b3dd695e8U, 0x3e1f356abdf24628U, 0xbe0de743be0de743U, 0x3dd695e8bdb08392U,
  0xbc8a713b3d6b5a18U, 0xbba6217a3e115d4bU, 0xbd4fa9d9bda99782U, 0x3e20f06ebdeed020U,
  0xbd646e08bbdd81f8U, 0xbe168e57bc0a713bU, 0x3e0de7433e14d353U, 0x3dc8bdc93dcc33d1U,
  0x3e14d3533d115d4bU, 0xbc41d1b93dd695e8U, 0x3dad0d8a3ca6217aU, 0x3de46e08bdf5bc2fU,
  0x3cb3f99a3d03852bU, 0xbba6217a3d41d1b9U, 0x3d8a713b00000000U, 0x3d26217a3e14d353U,
  0x3d5d81f8be0a713bU, 0xbd5695e8bd115d4bU, 0x3d33f99a3cb3f99aU, 0xbe08b6373d86fb33U,
  0x3cc1d1b9bdd695e8U, 0x3dd695e8be308392U, 0x3dcfa9d9bda2ab72U, 0x3c98495b3dbae5a9U,
  0xbd1f356a3d8de743U, 0xbc7932373d8de743U, 0xbd3ae5a93ca6217aU, 0xbd03852b3cdd81f8U,
  0xbc793237bd5695e8U, 0x3d8de743bdd695e8U, 0xbe000f243e05402fU, 0x3ceb5a18badd81f8U,
  0x3d1f356abd03852bU, 0xbda99782bd8de743U, 0xbd793237be1a045fU, 0xbdf246283e0fa247U,
  0xbd0a713bbd48bdc9U, 0x3dda0bf03e0fa247U, 0x3e1f356a3db3f99aU, 0x3d3ae5a9bcb3f99aU,
  0x3ceb5a18be03852bU, 0xbdda0bf0be18495bU, 0x3de7e410bc8a713bU, 0xbd41d1b9bc41d1b9U,
  0x3add81f83ccfa9d9U, 0x3e0a713bbda99782U, 0xbadd81f83e1bbf63U, 0x3de7e4103dc1d1b9U,
  0xbd5d81f83e2d0d8aU, 0xbe168e573e000f24U, 0x3d86fb333d724628U, 0x3cb3f99a3ceb5a18U,
  0xbdc547c1bddd81f8U, 0x3db76fa2bdb08392U, 0x3e06fb33bd800f24U, 0xbe13184f3cf93237U,
  0xbe13184fbc5d81f8U, 0xbca6217a3add81f8U, 0xbd793237bd8a713bU, 0xbd33f99abdf93237U,
  0xbd41d1b93dbae5a9U, 0x3e0de743bdb76fa2U, 0x3d86fb33bdd31fe1U, 0xbe0de7433e1f356aU,
  0xbd2d0d8a3d793237U, 0x3df24628bdd695e8U, 0xbdeb5a183e1bbf63U, 0x3c41d1b93d800f24U,
  0x3e22ab72bd1f356aU, 0xbc7932373cdd81f8U, 0xbd8de743bcf93237U, 0xbd1f356abd724628U,
  0xbe1bbf63be168e57U, 0x3ba6217a3dd31fe1U, 0x3d83852bbd646e08U, 0xbe4deed53d115d4bU,
  0x3dc8bdc9be35b49eU, 0x3e33f99abd8a713bU, 0xbd03852b3e1a045fU, 0xbd5d81f8be1bbf63U,
  0xbdd31fe1bca6217aU, 0xbd8de743bd8de743U, 0x3d48bdc9bc26217aU, 0xbdf93237bccfa9d9U,
  0xbadd81f8be1f356aU, 0xbdb3f99a3d83852bU, 0x3deb5a183d5d81f8U, 0x3d41d1b93d83852bU,
  0xbe1a045f3c41d1b9U, 0x3c26217a3cb3f99aU, 0xbba6217abe13184fU, 0xbdb3f99abceb5a18U,
  0x3c5d81f83db3f99aU, 0xbe2466763dcfa9d9U, 0x3bdd81f83e168e57U, 0x3d9bbf63bceb5a18U,
  0x3d18495bbe26217aU, 0x3bdd81f8bcb3f99aU, 0x3d1f356a3ba6217aU, 0xbdf93237bcb3f99aU,
  0xbbdd81f83e2ec88eU, 0x3da6217abdb3f99aU, 0xbe08b6373e0de743U, 0x3e0de743bdf93237U,
  0xbc26217abdcc33d1U, 0xbadd81f8bdeed020U, 0x3dda0bf0be27dc7eU, 0xbd2d0d8a3d33f99aU,
  0xbd646e083db08392U, 0x3deed020bd3ae5a9U, 0x3d4fa9d9be000f24U, 0xbe3083923d4fa9d9U,
  0xbd915d4bbe06fb33U, 0xbd646e08bddd81f8U, 0x3dbe5bb1bcdd81f8U, 0xbd18495b3ddd81f8U,
  0xbe3ae5a93d724628U, 0x3d33f99a3b5d81f8U, 0xbdc1d1b93dcc33d1U, 0x3d1f356abcb3f99aU,
  0x3d94d3533db3f99aU, 0xbd83852b3cdd81f8U, 0xbe01ca27bdbe5bb1U, 0xbde46e08bd6b5a18U,
  0x3dd695e83de0f800U, 0x3d6b5a183dbe5bb1U, 0x3d800f243e03852bU, 0x3ca6217abe06fb33U,
  0xbdc1d1b93d48bdc9U, 0x3e392aa63e2d0d8aU, 0x3e3083923d6b5a18U, 0x3d86fb33bc26217aU,
  0xbd18495bbd0a713bU, 0xbd8de743bdd695e8U, 0x3e08b6373d646e08U, 0xbd33f99a3e1d7a66U,
  0x3dfca83fbdda0bf0U, 0x3c793237bdd31fe1U, 0xbd0a713bbd6b5a18U, 0xbd3ae5a93e18495bU,
  0x3d41d1b93cb3f99aU, 0xbc98495b3c5d81f8U, 0x3dcc33d1bd18495bU, 0x3d1f356abd915d4bU,
  0xbdd695e8bdeed020U, 0x3db3f99abc26217aU, 0xbde0f800be4c33d1U, 0x3dc547c13c41d1b9U,
  0xbd646e08bca6217aU, 0xbd48bdc9bd48bdc9U, 0xbda6217abdb76fa2U, 0xbadd81f83c5d81f8U,
  0x3dc1d1b93c98495bU, 0xbd94d353bdd695e8U, 0x3d1f356a3de7e410U, 0xbdeed020bdf93237U,
  0xbdc8bdc93c26217aU, 0xbdc547c13dd31fe1U, 0xbe13184fbd9f356aU, 0xbdeb5a183db3f99aU,
  0xbdc8bdc93e115d4bU, 0x3c0a713b3d8a713bU, 0xbe0fa2473e0a713bU, 0x3dbe5bb1bd9f356aU,
  0x3c0a713b3dd695e8U, 0xbe20f06ebe14d353U, 0x3ca6217a3e03852bU, 0x3e0fa2473ca6217aU,
  0xbc7932373e1a045fU, 0xbd5695e8bdf24628U, 0xbe0fa247bd0a713bU, 0x3db3f99a3ccfa9d9U,
  0xbe0fa247bd03852bU, 0x3dbe5bb13e246676U, 0x3d98495b3d800f24U, 0x3dbae5a9bd1f356aU,
  0xbdeb5a183d6b5a18U, 0x3e18495b3ba6217aU, 0x3dfca83fbd86fb33U, 0x3deb5a183ceb5a18U,
  0x3d115d4bbdc547c1U, 0xbe0a713bbda6217aU, 0x3dbe5bb13d3ae5a9U, 0xbdbae5a9bcc1d1b9U,
  0xbd48bdc93db08392U, 0x3d5d81f83d94d353U, 0x3d9f356abde46e08U, 0xbe115d4b3da6217aU,
  0xbe115d4b3d33f99aU, 0xbd646e083d800f24U, 0xbd9f356abda6217aU, 0xbdbe5bb13dcc33d1U,
  0x3e0de7433d1f356aU, 0x3d9bbf63bd83852bU, 0x3ca6217abe18495bU, 0xbd6b5a18bca6217aU,
  0xbdf246283deed020U, 0xbc98495b3d94d353U, 0x3de46e08bdf93237U, 0x3d26217a3d5695e8U,
  0xbbdd81f8bde46e08U, 0x3d5d81f8bdc1d1b9U, 0xbe0c2c3fbc98495bU, 0xbdbae5a93dc8bdc9U,
  0x3c41d1b93dbae5a9U, 0xbcf93237bc41d1b9U, 0xbdbe5bb1bdc547c1U, 0xbc26217a3e000f24U,
  0x3d1f356a3d800f24U, 0xbe1f356a3d41d1b9U, 0x3e08b6373da99782U, 0xbcc1d1b93deed020U,
  0x3e0fa2473d115d4bU, 0xbe115d4b3db76fa2U, 0xbde0f8003d41d1b9U, 0xbd33f99abda6217aU,
  0xbd5695e83d793237U, 0x3d98495bbe1d7a66U, 0x3dbae5a93e115d4bU, 0xbdeed0203e13184fU,
  0xbc98495b3ba6217aU, 0x3da997823deb5a18U, 0x3db08392bd646e08U, 0xbb5d81f8bccfa9d9U,
  0x3e2d0d8abd724628U, 0x3d94d3533e1bbf63U, 0xbdeed0203e13184fU, 0xbd2d0d8a3d800f24U,
  0x3d5d81f8bd5695e8U, 0xbc8a713bbd83852bU, 0x3dcc33d13d3ae5a9U, 0x3e0de743bde46e08U,
  0xbd8de7433dbae5a9U, 0x3e308392bcb3f99aU, 0x3d3ae5a9bd646e08U, 0xbc26217a3dcc33d1U,
  0x3d3ae5a93d33f99aU, 0x3ba6217a3dcfa9d9U, 0xbd6b5a183dc547c1U, 0xbca6217a3dc547c1U,
  0x3d3ae5a93d4fa9d9U, 0xbde0f8003d1f356aU, 0x3d48bdc9bba6217aU, 0xbcc1d1b9bd3ae5a9U,
  0x3dcfa9d9bddd81f8U, 0xbc0a713b3de7e410U, 0x3e1bbf63bc5d81f8U, 0x3d0a713bbd03852bU,
  0x3d18495bbd83852bU, 0xbe2b5286be18495bU, 0xbd4fa9d9be5695e8U, 0xbccfa9d93c98495bU,
  0x3de7e410bc8a713bU, 0x3e06fb33bd724628U, 0xbba6217abde0f800U, 0x3dc1d1b9be14d353U,
  0xbe3e5bb1bdcc33d1U, 0xbdc547c13d4fa9d9U, 0x3ddd81f83c26217aU, 0x3d03852b3e2d0d8aU,
  0xbdf5bc2f3c0a713bU, 0xbe14d353bd86fb33U, 0x3dc547c13dcfa9d9U, 0xbde46e08bc793237U,
  0x3d724628be299782U, 0xbd0a713b3de7e410U, 0x3de46e08bdd31fe1U, 0xbe2b5286bdfca83fU,
  0xbdb76fa2bdc1d1b9U, 0x3df932373d33f99aU, 0x3ceb5a18bb5d81f8U, 0xbd48bdc9bdbe5bb1U,
  0xbe01ca273d1f356aU, 0x3d5695e8bda6217aU, 0x3ddd81f8bc793237U, 0x3d26217a3d646e08U,
  0xbe2466763e01ca27U, 0xbb5d81f83e323e96U, 0xbcdd81f83e03852bU, 0x3e33f99abadd81f8U,
  0xbe22ab723e168e57U, 0x3dcfa9d93d18495bU, 0xbe1bbf633dcc33d1U, 0x3cc1d1b9bd8de743U,
  0xbe392aa6be2ec88eU, 0x3e03852bbdbe5bb1U, 0xbdc1d1b9bd41d1b9U, 0x3d9f356a3d9bbf63U,
  0x3cc1d1b9bd1f356aU, 0x3d8a713b3e376fa2U, 0x3d03852bbde7e410U, 0x3e000f24be0c2c3fU,
  0xbdf246283e2ec88eU, 0x3dcfa9d93dbe5bb1U, 0xbc5d81f83e0de743U, 0x3e18495b3d6b5a18U,
  0x3d5695e8bdda0bf0U, 0xbd5d81f83dc8bdc9U, 0xbe2466763dc1d1b9U, 0x3d1f356abe05402fU,
  0x3dc1d1b93d26217aU, 0xbe115d4bbe2ec88eU, 0xbe5164ddbe2b5286U, 0x3d793237bd9f356aU,
  0x3c793237be5bc6f4U, 0xbd26217abd2d0d8aU, 0xbd18495bbe08b637U, 0x3b5d81f8bd3ae5a9U,
  0xbe1f356abdeb5a18U, 0xbd9bbf63bccfa9d9U, 0x3dbe5bb13d41d1b9U, 0x3db3f99abb5d81f8U,
  0xbe33f99a3d3ae5a9U, 0x3d1f356a3dd31fe1U, 0xbc5d81f83d5695e8U, 0xbde7e4103dcc33d1U,
  0x3e0fa2473d0a713bU, 0x3c98495b3d800f24U, 0x3da997823c793237U, 0xbd48bdc93da2ab72U,
  0xbcc1d1b93d0a713bU, 0x3e3ca0ad3e299782U, 0xbe0fa247bd26217aU, 0xbcb3f99a3e308392U,
  0xbdc8bdc9bba6217aU, 0xbe115d4bbe05402fU, 0x3c8a713bbc8a713bU, 0xbd4fa9d9bd5695e8U,
  0x3d98495b3d5695e8U, 0x3d94d35300000000U, 0xbda2ab72bd6b5a18U, 0x3cb3f99abe1a045fU,
  0xbdbae5a93d86fb33U, 0x3dfca83fbe246676U, 0xbe14d353be03852bU, 0x3cb3f99abdeb5a18U,
  0xbe26217abe35b49eU, 0xbd83852b3ceb5a18U, 0x3da997823db08392U, 0x3e2997823e438cbdU,
  0x3d3ae5a93dbe5bb1U, 0x3de7e410bdd31fe1U, 0xbe05402f3b5d81f8U, 0xbdf5bc2f3db3f99aU,
  0x3d915d4b3d9bbf63U, 0xbdf5bc2fbd5d81f8U, 0x3d6b5a18bc8a713bU, 0xbdc1d1b9be4016b5U,
  0x3d6b5a18bba6217aU, 0xbd800f243e1f356aU, 0xbdb083923add81f8U, 0xbdd695e8be2ec88eU,
  0xbde0f800bc793237U, 0xbe3ca0adbe5164ddU, 0xbd8de7433dbae5a9U, 0x3dcfa9d9bda6217aU,
  0xbe0de743bd646e08U, 0x3d48bdc9bdb08392U, 0x3d5d81f8bdf5bc2fU, 0x3e1f356abc5d81f8U,
  0x3dad0d8a3dc8bdc9U, 0x3d9bbf633c0a713bU, 0xbdeb5a183de46e08U, 0x3bdd81f8bdf5bc2fU,
  0x3e13184f3e08b637U, 0xbdf93237bdbae5a9U, 0x3d915d4bbe06fb33U, 0x3dad0d8a3cc1d1b9U,
  0x3d33f99a3d115d4bU, 0xbe299782be0a713bU, 0x3c793237bdbae5a9U, 0x3d98495b00000000U,
  0x3d5695e83c8a713bU, 0x3e20f06ebd115d4bU, 0xbd7246283df93237U, 0xbe3ca0adbdb3f99aU,
  0xbdf24628be01ca27U, 0xbda6217a3d98495bU, 0xbdc547c13d6b5a18U, 0xbe323e96be20f06eU,
  0xbd646e083d4fa9d9U, 0xbd9f356abd2d0d8aU, 0xbdbe5bb13dc547c1U, 0x3da2ab723d18495bU,
  0xbdda0bf0be168e57U, 0xbd8de7433de0f800U, 0x3c0a713bbc41d1b9U, 0x3db083923de0f800U,
  0x3deb5a183dbae5a9U, 0xbd83852bbd724628U, 0x3db08392bcf93237U, 0x3e48bdc9bdcc33d1U,
  0x3e2d0d8a3d800f24U, 0x3ddd81f83e06fb33U, 0x3da6217a3ccfa9d9U, 0x3e1d7a663c41d1b9U,
  0xbe0fa247bdc547c1U, 0x3dbe5bb13ba6217aU, 0x3e115d4b3ddd81f8U, 0xbdc547c13e531fe1U,
  0x3e5164ddbd8a713bU, 0xbc41d1b93d793237U, 0xbd86fb33bdbae5a9U, 0xbddd81f8bdeed020U,
  0xbdd31fe13de46e08U, 0xbe376fa2be3ca0adU, 0xbe41d1b9U, 0x3e18495bbd83852bU,
  0xbc26217a3e2ec88eU, 0xbd8de743bc26217aU, 0xbccfa9d93d33f99aU, 0x3dbe5bb13de7e410U,
  0xbd83852bU, 0x3e000f243bdd81f8U, 0x3d3ae5a9be0a713bU, 0x3dbae5a9be18495bU,
  0x3ddd81f8bd83852bU, 0xbe06fb333db76fa2U, 0x3c8a713bbdbae5a9U, 0xbd115d4bbd115d4bU,
  0xbba6217a3cf93237U, 0xbdf93237bdbae5a9U, 0x3e0a713bbd793237U, 0x3dc547c13d94d353U,
  0xbd4fa9d93dc8bdc9U, 0xbbdd81f8be03852bU, 0x3d41d1b9bd9f356aU, 0xbd2d0d8a3e115d4bU,
  0x3e13184f3da6217aU, 0xbd1f356a3dbae5a9U, 0x3d94d3533d0a713bU, 0xbd4fa9d9bde46e08U,
  0xbe14d353bd98495bU, 0x3d86fb33bc793237U, 0xbd98495b3de0f800U, 0xbdbae5a93add81f8U,
  0x3d94d353bd115d4bU, 0xbcf932373dd695e8U, 0xbd94d353bdb76fa2U, 0x3d6b5a183db76fa2U,
  0x3d48bdc9bdcc33d1U, 0x3e22ab72bc41d1b9U, 0x3cb3f99abd724628U, 0xbe18495bbde0f800U,
  0xbd0a713b3dbae5a9U, 0xbd0a713bbd6b5a18U, 0x3e0fa247bd8de743U, 0xbdb08392bd86fb33U,
  0xbd2d0d8a3d18495bU, 0xbdeed020bdbae5a9U, 0xbe01ca27bd98495bU, 0xbc7932373e115d4bU,
  0xbd33f99a3df93237U, 0x3d0a713bbdf24628U, 0xbd8a713bbe0fa247U, 0xbc26217abd0a713bU,
  0xbdbe5bb1bd115d4bU, 0x3c41d1b9bd8a713bU, 0x3e22ab72bd26217aU, 0xbe168e57be000f24U,
  0x3db76fa2bd98495bU, 0xbadd81f83d86fb33U, 0x3e05402f3c26217aU, 0xbd03852bbd5695e8U,
  0x3e168e57bdf93237U, 0x3da2ab72bda6217aU, 0xbba6217a3e20f06eU, 0x3e13184fbe06fb33U,
  0x3db76fa23dcc33d1U, 0xbdda0bf0bd94d353U, 0x3e0de743bd8a713bU, 0x3e1bbf63be115d4bU,
  0xbe06fb33bceb5a18U, 0xbdbae5a93cf93237U, 0xbd94d3533e01ca27U, 0xbe246676bd48bdc9U,
  0x3ca6217abdf5bc2fU, 0xbd83852b3c0a713bU, 0x3e01ca273dd695e8U, 0x3d2d0d8abc41d1b9U,
  0x3de0f800be26217aU, 0xbd4fa9d9bc793237U, 0x3dcc33d13ba6217aU, 0xbdc1d1b9bcdd81f8U,
  0x3e18495bbe05402fU, 0x3e2d0d8a3e392aa6U, 0x3d8a713b3da99782U, 0x3e03852b3d83852bU,
  0xbc41d1b9bde0f800U, 0xbc7932373d3ae5a9U, 0x3df246283d83852bU, 0x3d41d1b93c8a713bU,
  0xbe168e573d8a713bU, 0xbd26217a3d9f356aU, 0x3cdd81f83ccfa9d9U, 0xbda6217abc5d81f8U,
  0xbc7932373deb5a18U, 0xbe03852b3d724628U, 0xbba6217a3d48bdc9U, 0xbdc8bdc93db76fa2U,
  0xbdcc33d13e26217aU, 0xbddd81f83de7e410U, 0xbcf932373da6217aU, 0xbd5d81f83c8a713bU,
  0x3ccfa9d9be1bbf63U, 0x3d800f24bd115d4bU, 0x3cdd81f83d94d353U, 0xbc793237bccfa9d9U,
  0x3de0f8003d8de743U, 0x3d41d1b93d41d1b9U, 0xbe0fa247bd26217aU, 0xbe000f24bda2ab72U,
  0x3df5bc2f3dd695e8U, 0x3da6217a3d5695e8U, 0x3dd31fe1bde7e410U, 0x3c7932373e000f24U,
  0xbcdd81f8bcf93237U, 0x3dbae5a93da2ab72U, 0x3ddd81f8bdda0bf0U, 0x3d33f99abdf93237U,
  0xbd5d81f83e2b5286U, 0xbde7e41000000000U, 0x3ca6217a3c8a713bU, 0x3e1a045fbde46e08U,
  0xbd03852bbdcc33d1U, 0xbc0a713bbcf93237U, 0xbbdd81f8bc5d81f8U, 0xbe01ca273e01ca27U,
  0x3add81f8bdda0bf0U, 0x3d1f356a3e22ab72U, 0xbe0de743bcc1d1b9U, 0x3e06fb33bb5d81f8U,
  0x3d1f356a3dc8bdc9U, 0x3deed0203e0a713bU, 0x3e0a713b3dad0d8aU, 0x3d48bdc93d115d4bU,
  0xbdd31fe1bd800f24U, 0x3ca6217abdc8bdc9U, 0xbe000f24be22ab72U, 0x3d18495b3add81f8U,
  0x3da2ab723d18495bU, 0x3e000f243cdd81f8U, 0xbbdd81f83c26217aU, 0xbd8a713b3e18495bU,
  0xbdb76fa23d9f356aU, 0xbca6217a3e14d353U, 0x3da2ab723d4fa9d9U, 0xbd2d0d8abe1a045fU,
  0x3d9f356a3d98495bU, 0x3d915d4b3dda0bf0U, 0x3e1bbf63bd115d4bU, 0xbe168e573d724628U,
  0x3cb3f99a3e14d353U, 0xbd83852b3df5bc2fU, 0xbe115d4bbd48bdc9U, 0xbe000f243c5d81f8U,
  0xbdf5bc2f3dcfa9d9U, 0x3deed0203dcc33d1U, 0x3ceb5a183bdd81f8U, 0xbde7e410bc98495bU,
  0x3ceb5a18bdb76fa2U, 0xbe4547c1be000f24U, 0x3da99782be08b637U, 0xbde0f800bcb3f99aU,
  0xbd1f356abdc8bdc9U, 0x3e4016b53e18495bU, 0xbcb3f99a3e27dc7eU, 0xbda997823cb3f99aU,
  0xbddd81f8bcf93237U, 0xbe01ca27be1bbf63U, 0xbc0a713b3c0a713bU, 0x3e06fb333d8a713bU,
  0xbdc8bdc93c8a713bU, 0x3d115d4b3c41d1b9U, 0x3d18495bbc26217aU, 0x3da6217abdf24628U,
  0x3d8a713bbda6217aU, 0xbe0de7433e06fb33U, 0x3d8a713bbd646e08U, 0x3d83852bbe06fb33U,
  0xbd646e083dcc33d1U, 0xbd4fa9d93dbae5a9U, 0x3d4fa9d9bcb3f99aU, 0xbdc8bdc9bd793237U,
  0x3d7932373c41d1b9U, 0x3dc1d1b9be115d4bU, 0xbe05402fbd800f24U, 0x3d5d81f83b5d81f8U,
  0xbdc547c1bdb3f99aU, 0xbceb5a183b5d81f8U, 0x3e168e57bd86fb33U, 0x3d800f24bdb3f99aU,
  0xbe168e573c793237U, 0x3d5695e83cc1d1b9U, 0xbde46e08bd86fb33U, 0x3d18495b3d5695e8U,
  0x3bdd81f8bd48bdc9U, 0xbdd695e8bd8a713bU, 0xbc8a713b3e2b5286U, 0xbc7932373e26217aU,
  0x3d646e08bceb5a18U, 0x3d3ae5a9bceb5a18U, 0x3dd695e83c26217aU, 0xbe14d3533cdd81f8U,
  0x3dd31fe1be438cbdU, 0xbe1a045fbde46e08U, 0x3dcfa9d93df24628U, 0x3de7e410bd9f356aU,
  0x3b5d81f8bd4fa9d9U, 0x3c41d1b9bd115d4bU, 0xbdb3f99abd94d353U, 0x3c98495b3e14d353U,
  0x3d41d1b93d18495bU, 0x3ceb5a18bd793237U, 0x3d0a713bbdf93237U, 0x3e06fb333d98495bU,
  0xbdbe5bb1bd33f99aU, 0xbcb3f99abe05402fU, 0x3dbae5a9bc98495bU, 0xbe000f243e18495bU,
  0xbc26217a3d9bbf63U, 0xbdfca83fbd26217aU, 0xbdfca83fbd18495bU, 0xbc98495bbda99782U,
  0xbdad0d8abc98495bU, 0xbd793237be33f99aU, 0xbd94d353be299782U, 0x3ca6217abdcfa9d9U,
  0x3d18495b3cdd81f8U, 0xbc98495bbbdd81f8U, 0xbc41d1b93c26217aU, 0xbe168e57be06fb33U,
  0xbadd81f83d646e08U, 0x3d7246283d83852bU, 0x3d94d3533db3f99aU, 0xbe33f99a3dbe5bb1U,
  0x3cb3f99abd4fa9d9U, 0xbdf24628bd8a713bU, 0x3d115d4bbe20f06eU, 0xbcb3f99abcdd81f8U,
  0x3d1f356abe4016b5U, 0xbd0a713bbda99782U, 0xbd1f356abe27dc7eU, 0xbcb3f99abcdd81f8U,
  0xbe0a713b3dc8bdc9U, 0xbd5695e8bd26217aU, 0x3e3e5bb13b5d81f8U, 0xbe22ab72bd9f356aU,
  0xbbdd81f83d724628U, 0xbe1d7a66be308392U, 0x3dad0d8a3d2d0d8aU, 0xbdad0d8a3b5d81f8U,
  0xbe0de743be20f06eU, 0x3dd695e8bd9bbf63U, 0x3c41d1b93dc8bdc9U, 0xbc8a713bbd83852bU,
  0x3d8de7433dad0d8aU, 0xbd1f356abd6b5a18U, 0xbe4702c5bdb3f99aU, 0x3d800f24bda99782U,
  0xbccfa9d93ccfa9d9U, 0x3e323e963e392aa6U, 0xbda99782bba6217aU, 0x3dda0bf0U,
  0x3de7e4103d724628U, 0x3e41d1b93e392aa6U, 0x3e48bdc93d115d4bU, 0xbba6217a3c8a713bU,
  0x3c5d81f83c26217aU, 0xbd4fa9d9be168e57U, 0x3d4fa9d93d9f356aU, 0xbe000f243e3ca0adU,
  0x3d646e083d724628U, 0x3e2466763d915d4bU, 0x3d33f99a3de0f800U, 0x3e06fb33be0a713bU,
  0xbd2d0d8a3dcfa9d9U, 0x3d1f356a3d5695e8U, 0x3e2466763d41d1b9U, 0xbd48bdc93e115d4bU,
  0xbe14d353bd3ae5a9U, 0x3e05402fbb5d81f8U, 0xbd18495b3dcfa9d9U, 0x3d4fa9d93ca6217aU,
  0xbcc1d1b93e0fa247U, 0x3da6217a3db3f99aU, 0x3d83852b3e0de743U, 0x3e115d4b3e03852bU,
  0xbadd81f83e2b5286U, 0x3d26217abb5d81f8U, 0x3d7246283e18495bU, 0x3e05402f3d41d1b9U,
  0xbddd81f83dad0d8aU, 0x3dd31fe1be41d1b9U, 0xbe2d0d8abc98495bU, 0xbd33f99abd41d1b9U,
  0xbca6217abe08b637U, 0xbceb5a183deb5a18U, 0x3dc547c1bdb76fa2U, 0x3add81f83d8a713bU,
  0x3d800f243d915d4bU, 0xbd5d81f8be4deed5U, 0x3d5695e83d26217aU, 0xbde0f800bdeb5a18U,
  0xbda2ab723d0a713bU, 0xbba6217abcdd81f8U, 0x3d1f356a3d9f356aU, 0x3c8a713b3c98495bU,
  0xbcc1d1b93d5d81f8U, 0x3d03852bbc26217aU, 0xbbdd81f83d83852bU, 0xbe0de7433e2b5286U,
  0xbd94d353be08b637U, 0x3b5d81f800000000U, 0xbe0de743bd4fa9d9U, 0x3e2997823d5d81f8U,
  0xbda6217abba6217aU, 0xbe03852bbe13184fU, 0x3d646e083e06fb33U, 0x3d915d4bbe05402fU,
  0xbdeed020bbdd81f8U, 0x3d7246283e05402fU, 0xbd8de7433d6b5a18U, 0x3ccfa9d93db3f99aU,
  0xbd5d81f8bc41d1b9U, 0xbd800f24bcdd81f8U, 0xbe05402fbe2d0d8aU, 0xbdbe5bb13ceb5a18U,
  0xbd41d1b93d793237U, 0x3da2ab723d800f24U, 0x3e05402f3c98495bU, 0xbe06fb33bd98495bU,
  0xbe13184f3deed020U, 0xbe13184fbd8a713bU, 0x3da6217a3e1d7a66U, 0x3c41d1b9bde0f800U,
  0xbdf246283e35b49eU, 0xbca6217a3dbae5a9U, 0xbe3ae5a9bdeed020U, 0xbd03852bbdf24628U,
  0xbd3ae5a9bd800f24U, 0x3df5bc2f3d5d81f8U, 0xbe0de743bc41d1b9U, 0x3e1bbf63be06fb33U,
  0xbe05402f3e0fa247U, 0x3e1f356abccfa9d9U, 0x3cf93237bdcfa9d9U, 0xbde7e410be06fb33U,
  0xbd48bdc93db08392U, 0x3d724628be168e57U, 0xbe27dc7e3e0de743U, 0x3d8de743bd9bbf63U,
  0x3dc1d1b93db76fa2U, 0x3e06fb333e35b49eU, 0xbd86fb333d9bbf63U, 0x3dc1d1b9bdf24628U,
  0x3d724628bdda0bf0U, 0x3ddd81f8bd1f356aU, 0xbd115d4bbd915d4bU, 0x3d5d81f8bd33f99aU,
  0xbc0a713b3de0f800U, 0xbd4fa9d93d9f356aU, 0x3dcfa9d93e18495bU, 0xbdc1d1b93ccfa9d9U,
  0x3d800f243d915d4bU, 0x3d0a713bbceb5a18U, 0xbda2ab723de46e08U, 0xbc26217abd800f24U,
  0x3d800f243da2ab72U, 0x3e0a713b3d724628U, 0xbdeed020bddd81f8U, 0xbd9f356abe0fa247U,
  0xbcf932373c41d1b9U, 0xbd800f243d0a713bU, 0x3e0c2c3f3d915d4bU, 0x3da6217a3e08b637U,
  0x3dd695e8bc793237U, 0xbd646e083d03852bU, 0xbcb3f99abdb08392U, 0xbd48bdc9bdbe5bb1U,
  0xbdda0bf03d4fa9d9U, 0xbdfca83f3d8de743U, 0x3dda0bf03d26217aU, 0x3db3f99abe000f24U,
  0xbd3ae5a9bd4fa9d9U, 0xbcdd81f83dd695e8U, 0x3e2b5286bd1f356aU, 0xbc0a713b3d94d353U,
  0xbe13184fbd48bdc9U, 0x3dcc33d13ccfa9d9U, 0x3df932373e08b637U, 0x3e000f243bdd81f8U,
  0xbe299782bd94d353U, 0xbe05402fbe05402fU, 0xbe06fb33bd41d1b9U, 0xbe115d4bbd18495bU,
  0xbd2d0d8a3d793237U, 0xbdd695e8bdb3f99aU, 0xbdd695e8bd86fb33U, 0x3d3ae5a9be0a713bU,
  0x3c26217a3db3f99aU, 0xbe3ca0adbbdd81f8U, 0xbd646e083dc8bdc9U, 0x3d7932373d86fb33U,
  0xbda6217abe438cbdU, 0x3e4016b5bd86fb33U, 0xbdcfa9d9bd26217aU, 0xbba6217a3d793237U,
  0xbe3e5bb1bdc1d1b9U, 0xbba6217a3ccfa9d9U, 0xbdd31fe13dbae5a9U, 0x3ca6217a3d3ae5a9U,
  0xbc0a713bbe1bbf63U, 0xbddd81f83ccfa9d9U, 0xbd83852bbe18495bU, 0xbe168e57bd9f356aU,
  0xbe0c2c3f3cf93237U, 0x3d33f99abcf93237U, 0xbdeb5a183ceb5a18U, 0x3d33f99abe26217aU,
  0x3e20f06e3dd695e8U, 0x3ceb5a183dbe5bb1U, 0x3d8de743bba6217aU, 0xbdeed020bdf5bc2fU,
  0x3dcfa9d9bb5d81f8U, 0xbba6217a3e0a713bU, 0xbdf246283d2d0d8aU, 0x3cc1d1b93e1d7a66U,
  0xbd33f99a3d4fa9d9U, 0xbcdd81f83cb3f99aU, 0x3d8de743bcf93237U, 0xbd03852bbd8a713bU,
  0xbbdd81f8bde0f800U, 0x3ccfa9d9bdd31fe1U, 0x3dd695e8bcb3f99aU, 0xbdc547c13d5d81f8U,
  0x3e1a045fbb5d81f8U, 0xbc26217abdda0bf0U, 0xbd83852b3e03852bU, 0xbb5d81f8bcf93237U,
  0x3d9bbf633d94d353U, 0x3e08b6373cc1d1b9U, 0x3e168e57bcc1d1b9U, 0xbd33f99abdad0d8aU,
  0xbdf932373d8a713bU, 0xbc793237bd724628U, 0xbd26217a3dbe5bb1U, 0x3db083923d41d1b9U,
  0x3ceb5a18be115d4bU, 0x3d98495bbd793237U, 0x3c8a713b3d1f356aU, 0xbc8a713bbe1a045fU,
  0xbd9f356a3d4fa9d9U, 0xbd6b5a18bda6217aU, 0x3ddd81f83dc547c1U, 0xbd83852b3d5695e8U,
  0x3d98495b3e18495bU, 0xbd3ae5a93c98495bU, 0xbdbae5a93e1bbf63U, 0x3d7246283e14d353U,
  0x3add81f8bd8a713bU, 0x3e0de743bd83852bU, 0x3d5695e8bd94d353U, 0xbda997823c793237U,
  0xbd9bbf63bcdd81f8U, 0x3e18495bbd724628U, 0x3dcc33d13c41d1b9U, 0xbd7246283d86fb33U,
  0xbb5d81f83e0a713bU, 0x3dfca83f3deb5a18U, 0x3d26217a3df5bc2fU, 0xbd03852bbdda0bf0U,
  0x3de0f800bd5d81f8U, 0x3e2b52863da2ab72U, 0x3d9f356aU, 0x3d9bbf63bdeed020U,
  0xbd03852b3dcc33d1U, 0x3e35b49e3e06fb33U, 0x3d5695e83cf93237U, 0x3cf93237bdc547c1U,
  0xbd800f243e0a713bU, 0x3cc1d1b9bd9bbf63U, 0xbe18495bbe22ab72U, 0xbdf93237bdc547c1U,
  0xbd115d4bbdda0bf0U, 0xbdb76fa2bd915d4bU, 0x3e03852b3c98495bU, 0xbd6b5a183c41d1b9U,
  0xbe33f99abb5d81f8U, 0xbd4fa9d9bc793237U, 0xbe01ca273e03852bU, 0xbd33f99abb5d81f8U,
  0x3d8de743bdf5bc2fU, 0x3d98495bbd03852bU, 0xbd0a713bbd5695e8U, 0xbd800f2400000000U,
  0xbd41d1b9bc8a713bU, 0xbc98495b3e03852bU, 0xbc7932373d915d4bU, 0x3db083923ca6217aU,
  0x3db3f99a3d646e08U, 0x3b5d81f83dad0d8aU, 0xbe376fa23d18495bU, 0xbdc547c1badd81f8U,
  0x3e14d353bccfa9d9U, 0x3bdd81f83e0de743U, 0xbdb083923e13184fU, 0x3add81f83d48bdc9U,
  0x3e246676bc41d1b9U, 0xbcf93237be03852bU, 0xbe0c2c3fbda2ab72U, 0xbd86fb33bd8a713bU,
  0x3c98495bbdb08392U, 0xbe000f24bd5695e8U, 0x3df932373d793237U, 0xbd18495b3d9f356aU,
  0x3d18495b3d86fb33U, 0xbd9bbf63bc793237U, 0x3cb3f99abd724628U, 0xbdfca83f3e0a713bU,
  0x3d7246283e33f99aU, 0xbdfca83f3dbe5bb1U, 0x3da2ab723e1a045fU, 0x3bdd81f83dbae5a9U,
  0x3e0fa247bd800f24U, 0xbdd31fe1bdcfa9d9U, 0xbe000f243e0de743U, 0x3d1f356a3ddd81f8U,
  0x3d26217abdc547c1U, 0x3e246676bd9bbf63U, 0xbd98495b3e18495bU, 0x3dc8bdc93d800f24U,
  0xbd48bdc9be000f24U, 0x3e26217abda2ab72U, 0x3dc547c1bd646e08U, 0x3e2997823db3f99aU,
  0x3c41d1b93e33f99aU, 0x3da997823dcfa9d9U, 0xbd8a713bbd1f356aU, 0xbd9bbf63be323e96U,
  0x3d9f356a3d9bbf63U, 0x3da6217abd0a713bU, 0x3df93237be03852bU, 0xbadd81f8bd48bdc9U,
  0x3e000f24be0fa247U, 0x3d4fa9d9be13184fU, 0xbe2d0d8a3dd31fe1U, 0xbd646e08bcb3f99aU,
  0xbd5695e83dc1d1b9U, 0xbd3ae5a93db76fa2U, 0x3da997823c5d81f8U, 0xbd5695e8bdfca83fU,
  0x3e000f24bcc1d1b9U, 0xbe35b49e3d26217aU, 0xbd9f356a3dc8bdc9U, 0x3e2ec88e3df5bc2fU,
  0xbdf5bc2fbd33f99aU, 0xbe000f24bdf24628U, 0xbe4547c13d94d353U, 0xbde7e410bc98495bU,
  0x3dbe5bb13da99782U, 0x3d94d3533d800f24U, 0xbd03852bbdc8bdc9U, 0x3df932373d94d353U,
  0xbda6217abdc8bdc9U, 0xbd646e083d9f356aU, 0xbd4fa9d93e1d7a66U, 0x3d86fb333add81f8U,
  0xbda99782be01ca27U, 0x3deb5a183deed020U, 0xbdc1d1b9bba6217aU, 0x3e0fa2473d41d1b9U,
  0x3d8a713bbc0a713bU, 0xbd03852bbdeed020U, 0x3dc547c1be1a045fU, 0xbde46e083e1a045fU,
  0x3da2ab72bcb3f99aU, 0xbdc547c13e2d0d8aU, 0xbe26217a3d115d4bU, 0xbe22ab72bd41d1b9U,
  0xbd83852b3d6b5a18U, 0x3e01ca27bda2ab72U, 0xbd5695e8bd18495bU, 0xbe03852b3d8de743U,
  0xbd5d81f83e26217aU, 0x3deed020bdf24628U, 0x3d646e083d5d81f8U, 0x3e3e5bb1bd86fb33U,
  0xbe000f24bd915d4bU, 0xbba6217abc26217aU, 0x3e27dc7e3e0fa247U, 0xbe06fb333e168e57U,
  0x3dfca83f3da2ab72U, 0xbd33f99a3e13184fU, 0xbdc547c13dfca83fU, 0xbd915d4bbe0a713bU,
  0x3d724628bd9bbf63U, 0x3bdd81f8be000f24U, 0xbd18495bbd18495bU, 0x3d6b5a183d83852bU,
  0xbe1d7a663d0a713bU, 0x3de0f800be14d353U, 0xbc793237bd41d1b9U, 0x3dbae5a93da6217aU,
  0xbe0fa247bd646e08U, 0xbe376fa2bdc547c1U, 0xbe06fb333dc1d1b9U, 0x3d18495b3db76fa2U,
  0xbe000f243ddd81f8U, 0xbe08b6373d800f24U, 0x3e0c2c3fbc5d81f8U, 0xbd9f356a3d2d0d8aU,
  0x3add81f83e0c2c3fU, 0xbd83852bbdf93237U, 0xbd48bdc9bb5d81f8U, 0xbcf93237badd81f8U,
  0x3db76fa23e3ae5a9U, 0x3db08392bdf5bc2fU, 0x3e2997823e323e96U, 0xbdc1d1b9bd724628U,
  0x3ca6217abdf93237U, 0xbdf5bc2fbe246676U, 0xbc5d81f8bcb3f99aU, 0x3e08b637be05402fU,
  0xbe35b49ebbdd81f8U, 0xbe2466763dcfa9d9U, 0xbd646e08be14d353U, 0x3dbe5bb13d0a713bU,
  0x3dad0d8abe22ab72U, 0x3e2d0d8abe438cbdU, 0xbe000f243e14d353U, 0xbe22ab72be14d353U,
  0x3d26217abcb3f99aU, 0x3e03852b3de0f800U, 0x3e27dc7e3d83852bU, 0x3e000f243df5bc2fU,
  0xbe000f243dbe5bb1U, 0x3bdd81f8bd03852bU, 0x3d03852b3deb5a18U, 0x3e1d7a663da2ab72U,
  0xbdc8bdc9bdb3f99aU, 0x3e01ca273e0a713bU, 0x3deed0203de46e08U, 0x3e323e96bdd695e8U,
  0xbd9f356a3d03852bU, 0xbd2d0d8abe3ae5a9U, 0x3e0c2c3fbe05402fU, 0x3da2ab723e3ae5a9U,
  0x3c8a713bbd9bbf63U, 0x3e4547c1bd5d81f8U, 0x3ca6217a3e05402fU, 0xbdbae5a9be05402fU,
  0x3dc8bdc93c0a713bU, 0x3d83852b3cdd81f8U, 0x3dc8bdc9bd724628U, 0xbca6217a3dd31fe1U,
  0x3e168e573d41d1b9U, 0x3ca6217abe03852bU, 0x3e0a713b3e14d353U, 0xbc5d81f83deed020U,
  0x3db76fa23d83852bU, 0x3d98495bbde7e410U, 0xbd1f356abe000f24U, 0x3df5bc2f3d83852bU,
  0xbd3ae5a93e27dc7eU, 0xbd98495bbd5695e8U, 0xbd33f99abe26217aU, 0xbe18495b3b5d81f8U,
  0x3d2d0d8abc26217aU, 0xbd8a713b3db76fa2U, 0x3e246676bdcfa9d9U, 0x3ca6217a3d793237U,
  0xbdb3f99abe2ec88eU, 0x3da99782bc26217aU, 0xbd8de7433deed020U, 0xbdfca83f3cf93237U,
  0xbd0a713b3dc547c1U, 0xbd800f243dbe5bb1U, 0x3d646e08bd5695e8U, 0x3c41d1b9bceb5a18U,
  0xbe33f99abd0a713bU, 0x3d03852b3db76fa2U, 0x3db08392bd9f356aU, 0xbd48bdc93e000f24U,
  0x3da2ab72be27dc7eU, 0xbbdd81f8be376fa2U, 0x3d8de743bc793237U, 0x3e08b6373e03852bU,
  0x3e1d7a66be0c2c3fU, 0xbe2ec88ebdfca83fU, 0x3d6b5a183d8a713bU, 0xbddd81f83e000f24U,
  0x3c41d1b93d115d4bU, 0x3d7246283d793237U, 0x3cdd81f8bd6b5a18U, 0xbe2ec88e3df24628U,
  0x3d800f243d646e08U, 0x3e06fb33bdbae5a9U, 0x3df932373d41d1b9U, 0x3e14d353bd86fb33U,
  0x3e03852bbd646e08U, 0x3d2d0d8abbdd81f8U, 0x3e000f243cb3f99aU, 0xbdc8bdc9bbdd81f8U,
  0x3dcc33d1bd0a713bU, 0xbdb3f99a3d2d0d8aU, 0x3d646e083d915d4bU, 0x3d03852bbc98495bU,
  0x3e27dc7e3deed020U, 0x3e05402f3cdd81f8U, 0xbdbe5bb13d86fb33U, 0x3e48bdc93d3ae5a9U,
  0x3d793237bd03852bU, 0x3e168e573d83852bU, 0x3cc1d1b93d94d353U, 0x3dc1d1b93ceb5a18U,
  0xbd9f356abe376fa2U, 0x3db083923e0c2c3fU, 0x3c41d1b9bc0a713bU, 0x3d9bbf633d86fb33U,
  0xbd2d0d8abc0a713bU, 0x3d9bbf63bdeed020U, 0x3e20f06ebadd81f8U, 0x3d2d0d8abe1a045fU,
  0xbdb083923de0f800U, 0x3dd695e83bdd81f8U, 0x3de7e4103e06fb33U, 0xbd3ae5a9bc5d81f8U,
  0x3dc547c1bd26217aU, 0x3d03852bbdcfa9d9U, 0xbd793237bcdd81f8U, 0x3e115d4b3e0fa247U,
  0x3e1f356a3bdd81f8U, 0xbe115d4bbde7e410U, 0x3dfca83fbe06fb33U, 0xbdf24628bc793237U,
  0xbe4fa9d9bdd31fe1U, 0x3d4fa9d9be4702c5U, 0x3d3ae5a93da6217aU, 0xbceb5a183e2d0d8aU,
  0x3de7e4103deb5a18U, 0xbe246676bba6217aU, 0x3d94d353be1bbf63U, 0x3e08b6373d03852bU,
  0xbe0fa247be0a713bU, 0x3d98495b3d5d81f8U, 0xbd86fb333c0a713bU, 0x3da6217abe01ca27U,
  0xbc41d1b93e06fb33U, 0x3dd31fe13d86fb33U, 0x3db08392bc26217aU, 0x3c41d1b9bdad0d8aU,
  0xbe08b637be4deed5U, 0x3dcc33d1bd83852bU, 0xbe3e5bb1bd724628U, 0xbdad0d8abdc8bdc9U,
  0x3dbae5a93dad0d8aU, 0xbdbae5a93ca6217aU, 0x3d8de743bd915d4bU, 0x3d9bbf633dc8bdc9U,
  0x3dda0bf0bd9f356aU, 0xbd41d1b9bd8a713bU, 0x3dbae5a9bd03852bU, 0x3e13184f3de46e08U,
  0xbdd695e8be376fa2U, 0xbd5695e8bd94d353U, 0x3e18495b3e20f06eU, 0x3e0de743be18495bU,
  0xbccfa9d93d48bdc9U, 0xbda99782bc41d1b9U, 0xbe13184fbadd81f8U, 0xbdeb5a183d4fa9d9U,
  0x3dc547c1be1a045fU, 0x3e0c2c3fbe1f356aU, 0xbc0a713b3dda0bf0U, 0x3d94d353be2d0d8aU,
  0xbe22ab72be000f24U, 0xbd7932373e0a713bU, 0x3d3ae5a9be4deed5U, 0xbd115d4b3cdd81f8U,
  0xbc7932373ccfa9d9U, 0x3d86fb333e03852bU, 0xbe168e57bc8a713bU, 0xbdf5bc2f3dbae5a9U,
  0xbde46e083d41d1b9U, 0x3d6b5a183d98495bU, 0x3b5d81f83c5d81f8U, 0x3e0a713bbe01ca27U,
  0x3df5bc2f3d646e08U, 0x3d915d4b3da2ab72U, 0xbdd695e83d115d4bU, 0xbcdd81f8bd8a713bU,
  0x3e2d0d8a3c5d81f8U, 0xbd6b5a183dc547c1U, 0x3d26217a3e48bdc9U, 0x3dbe5bb13e41d1b9U,
  0xbca6217a3deed020U, 0xbd26217abdc547c1U, 0x3d33f99a3e1f356aU, 0xbd03852bbcf93237U,
  0x3db3f99abb5d81f8U, 0x3c7932373d8de743U, 0xbd03852b3e2d0d8aU, 0x3e1d7a66bd9f356aU,
  0x3d86fb33bd646e08U, 0xbe308392be3e5bb1U, 0xbe323e96be4702c5U, 0x3d7932373dfca83fU,
  0xbc7932373d3ae5a9U, 0xbd646e083de7e410U, 0xbd94d3533e48bdc9U, 0xbd800f243db3f99aU,
  0x3dc1d1b93c0a713bU, 0x3dd31fe1bbdd81f8U, 0x3ddd81f8bdfca83fU, 0xbe06fb33bd915d4bU,
  0xbe0a713b3dbe5bb1U, 0xbba6217abe1a045fU, 0x3cb3f99abca6217aU, 0x3e0a713b3d4fa9d9U,
  0xbdd31fe13e41d1b9U, 0x3e22ab723d26217aU, 0xbadd81f83c793237U, 0xbc41d1b9be000f24U,
  0xbdad0d8a3d41d1b9U, 0x3da2ab723d793237U, 0x3dcfa9d9bde46e08U, 0xbe376fa23d9f356aU,
  0xbdd31fe13ba6217aU, 0x3dd695e83c8a713bU, 0xbd0a713bbd6b5a18U, 0xbc41d1b93cb3f99aU,
  0x3d98495bbdf24628U, 0xbdeb5a183d26217aU, 0x3d9bbf63bda2ab72U, 0x3e14d353bdc1d1b9U,
  0xbd03852b3db3f99aU, 0xbd26217a3e13184fU, 0xbe438cbdbc98495bU, 0xbe2ec88ebdc8bdc9U,
  0x3d33f99a3d83852bU, 0x3e246676bdfca83fU, 0x3dbe5bb1bddd81f8U, 0xbe26217a3de0f800U,
  0xbd18495bbd6b5a18U, 0x3e0de7433dc1d1b9U, 0xbcb3f99abd33f99aU, 0x3dcc33d1bd4fa9d9U,
  0xbd41d1b93df93237U, 0xbdb3f99abe03852bU, 0x3dc1d1b93db76fa2U, 0xbc5d81f83ccfa9d9U,
  0x3d4fa9d93d03852bU, 0xbe18495bbdda0bf0U, 0xbc41d1b9bcc1d1b9U, 0x3d115d4b3d724628U,
  0xbe0de743be4016b5U, 0xbe41d1b9be299782U, 0x3d83852bbe438cbdU, 0x3cdd81f8bde0f800U,
  0xbdfca83f3e08b637U, 0xbdd31fe13dc547c1U, 0x3dc8bdc93e22ab72U, 0x3d0a713b3e20f06eU,
  0x3ddd81f83d33f99aU, 0x3dd695e83d8a713bU, 0xbd86fb333cdd81f8U, 0x3e392aa6bdcc33d1U,
  0xbb5d81f83dfca83fU, 0xbda6217abd9f356aU, 0xbcf932373bdd81f8U, 0xbe0a713bbe1a045fU,
  0x3d83852b3dfca83fU, 0x3d9bbf63bde0f800U, 0x3ca6217a3dd31fe1U, 0xbd0a713bbdf5bc2fU,
  0x3e3083923e2ec88eU, 0x3d8a713bbd48bdc9U, 0xbe27dc7ebd0a713bU, 0xbe1d7a663c41d1b9U,
  0xbd793237bdc1d1b9U, 0xbd915d4bbadd81f8U, 0xbe35b49e3da6217aU, 0x3d83852bbe22ab72U,
  0xbd0a713b3d646e08U, 0x3e05402f3deed020U, 0xbd41d1b93dc547c1U, 0x3d94d353be299782U,
  0xbde7e410bdbe5bb1U, 0x3c98495bbe05402fU, 0x3dd695e83d98495bU, 0xbe0de743bd03852bU,
  0xbe03852bbdf24628U, 0x3df932373c0a713bU, 0x3d9f356a3dd695e8U, 0x3ceb5a18bcf93237U,
  0xbde7e4103e0a713bU, 0xbdb76fa2bde46e08U, 0xbe27dc7e3e03852bU, 0xbcc1d1b9bd41d1b9U,
  0xbddd81f83d26217aU, 0x3d83852b3d4fa9d9U, 0x3e2b52863b5d81f8U, 0x3dda0bf0bd5695e8U,
  0xbc5d81f83dc8bdc9U, 0x3d83852bbe03852bU, 0x3d7932373e4deed5U, 0x3d5d81f8bd41d1b9U,
  0xbdd31fe13dd31fe1U, 0x3db08392bd4fa9d9U, 0xbcc1d1b9bd3ae5a9U, 0xbdcc33d13e168e57U,
  0x3d1f356abdad0d8aU, 0x3e1bbf63bdb08392U, 0xbcb3f99abcf93237U, 0x3deb5a183de0f800U,
  0xbd3ae5a93dda0bf0U, 0xbc26217abde46e08U, 0xbe1bbf633d8a713bU, 0x3d9bbf63bd724628U,
  0xbd83852bbe1bbf63U, 0x3d7932373d5695e8U, 0xbe1f356abdb3f99aU, 0xbe03852bbc26217aU,
  0x3e05402f3c793237U, 0x3d33f99a3dc1d1b9U, 0x3d33f99abdf24628U, 0x3ceb5a18be376fa2U,
  0x3d41d1b93d86fb33U, 0xbadd81f83deb5a18U, 0xbddd81f8bd86fb33U, 0xbde0f8003d646e08U,
  0x3c41d1b9bdc547c1U, 0xbe27dc7ebdd31fe1U, 0x3e27dc7ebd0a713bU, 0xbd9bbf63bd5d81f8U,
  0xbd793237bc98495bU, 0x3d94d3533e392aa6U, 0xbcb3f99abdb08392U, 0xbdd695e8bd33f99aU,
  0xbe115d4bbe3ca0adU, 0xbe01ca27bdc8bdc9U, 0xbdf93237be08b637U, 0xbe1f356a3bdd81f8U,
  0xbe41d1b9bdf24628U, 0x3d41d1b93d724628U, 0xbb5d81f8be3ca0adU, 0x3ddd81f83d86fb33U,
  0x3d26217a3dbe5bb1U, 0x3e08b637bd9bbf63U, 0xbd115d4b3dbe5bb1U, 0xbd5d81f8bdb3f99aU,
  0x3d3ae5a93d33f99aU, 0x3db3f99abdf93237U, 0x3df93237be3e5bb1U, 0x3da2ab72bcdd81f8U,
  0xbdda0bf0bdbae5a9U, 0xbadd81f8be27dc7eU, 0xbe4c33d1be392aa6U, 0x3d724628be20f06eU,
  0xbcf93237be3e5bb1U, 0xbe2d0d8abe35b49eU, 0xbde46e08bcb3f99aU, 0xbdf246283c98495bU,
  0x3dbe5bb13ceb5a18U, 0x3e4016b53db76fa2U, 0xbd03852b3e3e5bb1U, 0xbe13184f3d5695e8U,
  0x3ba6217abe438cbdU, 0xbe48bdc9bd86fb33U, 0x3d86fb333d9f356aU, 0xbe03852b3e20f06eU,
  0xbd5695e8bd5d81f8U, 0xbdf246283da6217aU, 0x3dda0bf03e20f06eU, 0x3e168e57bcdd81f8U,
  0x3c26217a3e3ca0adU, 0xbc41d1b93d98495bU, 0xbc8a713bbdb3f99aU, 0xbdda0bf0be1d7a66U,
  0xbdc8bdc93d4fa9d9U, 0xbddd81f83dcc33d1U, 0x3e06fb333dc1d1b9U, 0xbd115d4bbdf93237U,
  0x3e2d0d8a3c5d81f8U, 0xbd4fa9d93e20f06eU, 0x3db083923e4016b5U, 0x3e05402fbcdd81f8U,
  0x3cdd81f8bdd31fe1U, 0x3cc1d1b93e246676U, 0xbd115d4b3d115d4bU, 0xbd9bbf63bd646e08U,
  0xbe03852bbd94d353U, 0xbd8a713b3e0c2c3fU, 0xbd9bbf633d98495bU, 0x3c26217abcc1d1b9U,
  0xbda997823ceb5a18U, 0xbdcfa9d93da2ab72U, 0x3e05402fbd26217aU, 0x3d8de7433de0f800U,
  0xbdda0bf0be299782U, 0xbdcc33d1bca6217aU, 0xbd86fb33bbdd81f8U, 0x3dc547c1bc26217aU,
  0xbe0c2c3fbe299782U, 0xbe1a045fbdf93237U, 0x3c98495bbd33f99aU, 0xbe2d0d8abd2d0d8aU,
  0x3cdd81f8bdbe5bb1U, 0xbcdd81f8bde7e410U, 0x3c7932373e168e57U, 0xbdc547c13d48bdc9U,
  0xbe1d7a66be1a045fU, 0xbc0a713b3df24628U, 0xbd7246283dc1d1b9U, 0xbdad0d8abccfa9d9U,
  0x3d115d4b3e4016b5U, 0x3e33f99abdfca83fU, 0x3d724628bd8de743U, 0x3db083923dcfa9d9U,
  0x3dc1d1b9bdcfa9d9U, 0x3df5bc2f3dcc33d1U, 0xbd793237be392aa6U, 0xbc8a713bbe1a045fU,
  0x3d915d4b3d9f356aU, 0xbe4deed5bd0a713bU, 0x3db3f99abda99782U, 0xbca6217a3d115d4bU,
  0xbe1d7a66bca6217aU, 0x3da2ab72be4a78cdU, 0x3d9bbf633d6b5a18U, 0xbdeed020bd115d4bU,
  0x3ca6217a3d915d4bU, 0xbc8a713bbd9bbf63U, 0x3c5d81f8bc0a713bU, 0xbd26217abadd81f8U,
  0x3d5695e83d9f356aU, 0xbda997823db76fa2U, 0x3e26217abadd81f8U, 0xbdf24628bdcc33d1U,
  0xbdcc33d13e14d353U, 0xbda6217a3de7e410U, 0x3db3f99abd793237U, 0x3c0a713b3b5d81f8U,
  0x3dfca83fbd5d81f8U, 0x3db083923e05402fU, 0x3c8a713bbdfca83fU, 0x3db76fa2bdfca83fU,
  0x3d03852bbca6217aU, 0x3d1f356abccfa9d9U, 0x3cb3f99a3c98495bU, 0xbe1bbf63bd1f356aU,
  0xbc26217a3da99782U, 0xbdf5bc2fbde7e410U, 0xbe0de743be22ab72U, 0x3ba6217a3df93237U,
  0x3d03852b3d83852bU, 0x3db76fa2bda2ab72U, 0x3deed0203d41d1b9U, 0x3e0a713bbe08b637U,
  0x3dc547c13e1bbf63U, 0x3dfca83fbd98495bU, 0xbdf246283d4fa9d9U, 0xbccfa9d9bd5d81f8U,
  0x3d9f356a3dda0bf0U, 0xbe20f06ebd915d4bU, 0x3d3ae5a93d5d81f8U, 0xbd2d0d8abd2d0d8aU,
  0xbd26217a3d793237U, 0x3ceb5a18bdeb5a18U, 0x3dcfa9d9be1bbf63U, 0x3de0f800bbdd81f8U,
  0x3dd31fe13c98495bU, 0xbd646e08bd83852bU, 0xbd5d81f83e22ab72U, 0xbc5d81f8bcc1d1b9U,
  0xbe13184fbdb3f99aU, 0xbe323e963e1d7a66U, 0x3d98495bbba6217aU, 0xbe1bbf63be14d353U,
  0x3e01ca27bc0a713bU, 0x3e1bbf63bc8a713bU, 0xbb5d81f8bc26217aU, 0x3e246676bd0a713bU,
  0xbdbe5bb1bcdd81f8U, 0xbca6217abdc1d1b9U, 0xbd2d0d8abd41d1b9U, 0x3df932373e1a045fU,
  0x3e01ca273d8de743U, 0x3d5d81f8bc0a713bU, 0xbcc1d1b93ddd81f8U, 0x3da99782bdc547c1U,
  0xbd1f356a3dc547c1U, 0x3b5d81f8bca6217aU, 0xbd0a713bbd6b5a18U, 0x3d0a713bbc8a713bU,
  0xbcb3f99abd646e08U, 0xbbdd81f83e01ca27U, 0xbdb76fa2bc8a713bU, 0x3d18495bbd9bbf63U,
  0x3deb5a18bde0f800U, 0x3e08b637bceb5a18U, 0x3e08b6373c8a713bU, 0xbdb08392be0fa247U,
  0x3c98495b3de7e410U, 0x3df5bc2f3e4016b5U, 0xbe0de7433e22ab72U, 0x3e35b49e3e27dc7eU,
  0x3d793237bdbae5a9U, 0xbc0a713bbd800f24U, 0x3dbe5bb13ccfa9d9U, 0xbdb76fa23e06fb33U,
  0x3d800f24be18495bU, 0x3ddd81f8bdb3f99aU, 0xbdc1d1b9bdb3f99aU, 0xbe0fa2473de46e08U,
  0x3dc547c13b5d81f8U, 0x3d94d353be168e57U, 0x3dc1d1b9bd5695e8U, 0xbd9f356a3e299782U,
  0x3d793237bd915d4bU, 0xbde46e083e41d1b9U, 0x3ccfa9d93c26217aU, 0x3d86fb333e35b49eU,
  0xbda2ab723e3ae5a9U, 0xbe0a713bbdf93237U, 0x3dbae5a93d86fb33U, 0x3dfca83fbd915d4bU,
  0xbd0a713b3e05402fU, 0x3d3ae5a93e4016b5U, 0x3de46e083cdd81f8U, 0x3e01ca27bdb3f99aU,
  0xbe0fa2473dc8bdc9U, 0xbe06fb333e26217aU, 0xbc0a713b3d18495bU, 0x3dc1d1b93e0de743U,
  0x3d94d353bdfca83fU, 0xbe168e57bda2ab72U, 0x3d8de7433e000f24U, 0xbdf24628be01ca27U,
  0x3d646e08bca6217aU, 0xbd9f356a3ceb5a18U, 0x3e06fb33bde0f800U, 0x3df24628bda99782U,
  0xbdc8bdc9bd94d353U, 0x3e0de743bdd695e8U, 0x3da2ab723e14d353U, 0xbd98495b3e0a713bU,
  0xbd915d4bbddd81f8U, 0x3e26217abe0de743U, 0xbd41d1b9bd86fb33U, 0x3e14d353bd2d0d8aU,
  0xbdad0d8a3e01ca27U, 0x3e05402f3de46e08U, 0xbd800f24be06fb33U, 0x3d115d4bbdc1d1b9U,
  0xbdb3f99a3e1a045fU, 0xbe0de743bcdd81f8U, 0x3add81f8bdbe5bb1U, 0xbccfa9d93d86fb33U,
  0x3ba6217abe18495bU, 0x3ba6217abd4fa9d9U, 0x3c8a713b3e0a713bU, 0xbd3ae5a9bdda0bf0U,
  0x3dad0d8abde7e410U, 0xbcf932373ddd81f8U, 0xbd8de7433db08392U, 0x3d48bdc9bd800f24U,
  0xbd115d4bbc5d81f8U, 0x3c26217abe13184fU, 0x3ceb5a183de7e410U, 0x3e26217abe06fb33U,
  0x3d2d0d8abccfa9d9U, 0x3e0fa2473e05402fU, 0x3d98495bbda6217aU, 0xbd8a713bbdc8bdc9U,
  0xbe000f24be168e57U, 0xbe1d7a66bc793237U, 0x3dc1d1b93d115d4bU, 0xbcb3f99a3d18495bU,
  0xbe05402f3ba6217aU, 0x3db083923ceb5a18U, 0x3e168e57bde46e08U, 0xbdda0bf03dfca83fU,
  0xbdf93237be03852bU, 0x3d4fa9d9be168e57U, 0xbdad0d8a3b5d81f8U, 0xbadd81f83cf93237U,
  0xbd646e08bda99782U, 0xbd0a713b3d9bbf63U, 0x3c5d81f8be168e57U, 0x3ddd81f83d33f99aU,
  0xbd8de743bddd81f8U, 0x3d33f99a3e3e5bb1U, 0x3d03852bbdeb5a18U, 0x3b5d81f8be33f99aU,
  0xbd03852bbd98495bU, 0xbdd695e83e1d7a66U, 0x3d2d0d8abc0a713bU, 0x3db3f99a3d86fb33U,
  0x3df5bc2fbcc1d1b9U, 0xbdf5bc2fbc98495bU, 0x3dcc33d1bd33f99aU, 0xbcc1d1b93c26217aU,
  0xbd83852bbc98495bU, 0x3e0a713b3dbae5a9U, 0xbdcc33d13e20f06eU, 0xbcf932373ba6217aU,
  0xbc41d1b93db08392U, 0xbc0a713b3d18495bU, 0xbdcc33d13d1f356aU, 0x3e03852b3cb3f99aU,
  0xbc0a713b3de46e08U, 0xbdc1d1b9bdf5bc2fU, 0xbd0a713bbe1bbf63U, 0xbe3ca0ad3d83852bU,
  0x3d1f356abdd31fe1U, 0x3ca6217abc98495bU, 0xbdcc33d13d793237U, 0xbd646e083db76fa2U,
  0x3e0c2c3f3c26217aU, 0x3d41d1b9be246676U, 0x3d800f24bd83852bU, 0xbd5695e83c5d81f8U,
  0xbe0de743bdeb5a18U, 0xbdeb5a18be0fa247U, 0x3c98495bbe0de743U, 0x3db76fa23d3ae5a9U,
  0xbe26217a3d2d0d8aU, 0x3e1bbf63bd724628U, 0x3e1f356abd915d4bU, 0xbe1a045fbe5164ddU,
  0x3d646e08bddd81f8U, 0xbe2d0d8abd26217aU, 0x3e01ca27bdd31fe1U, 0xbe115d4b3df5bc2fU,
  0xbd41d1b9be26217aU, 0xbdcc33d13d48bdc9U, 0x3c8a713b3e0de743U, 0x3d2d0d8abd5695e8U,
  0xbe2d0d8abde0f800U, 0x3e168e57be22ab72U, 0x3dfca83f3d8a713bU, 0xbdcc33d1bcf93237U,
  0xbd33f99abe376fa2U, 0xbdeed0203add81f8U, 0x3d800f243e18495bU, 0xbdc8bdc93d98495bU,
  0x3dc547c1bdad0d8aU, 0x3d9bbf633e0c2c3fU, 0x3e01ca27bdeb5a18U, 0xbdb3f99abde0f800U,
  0xbdda0bf0bdb08392U, 0x3e4016b5bca6217aU, 0x3e168e573e08b637U, 0x3da997823d793237U,
  0x3c41d1b93dbe5bb1U, 0xbe0a713bbd41d1b9U, 0xbe05402fbd48bdc9U, 0xbe1f356a3db3f99aU,
  0x3e0fa2473d41d1b9U, 0xbe246676bd83852bU, 0x3d86fb33bc98495bU, 0xbe3e5bb1be3ae5a9U,
  0x3e01ca27bd115d4bU, 0xbe0de743be33f99aU, 0xbe35b49ebd1f356aU, 0x3dc547c1bc5d81f8U,
  0x3e03852bbd9f356aU, 0xbd94d353be2ec88eU, 0x3e1bbf633ceb5a18U, 0x3cf932373e438cbdU,
  0xbe0fa247bd2d0d8aU, 0x3e03852bbc793237U, 0xbdcfa9d9bd48bdc9U, 0x3cf932373dbe5bb1U,
  0x3e27dc7e3df93237U, 0x3dbae5a9be2b5286U, 0xbdeb5a18be1bbf63U, 0xbd33f99a3da2ab72U,
  0xbd646e083da2ab72U, 0xbe2d0d8abcb3f99aU, 0x3c793237be1d7a66U, 0x3de0f8003c793237U,
  0x3e22ab723dcfa9d9U, 0x3e0fa2473e1bbf63U, 0xbceb5a183c26217aU, 0xbdb3f99a3c8a713bU,
  0x3d8a713b3dbe5bb1U, 0xbd33f99abdcfa9d9U, 0x3ca6217a3dd31fe1U, 0x3c5d81f83e01ca27U,
  0xbdeed0203dfca83fU, 0x3e0fa247bdf5bc2fU, 0xbdeed0203d915d4bU, 0xbd33f99abc98495bU,
  0xbd115d4b3dbe5bb1U, 0xbd724628bdc1d1b9U, 0x3d9f356abe308392U, 0x3d8a713b3de7e410U,
  0x3de0f800be14d353U, 0xbcf932373e168e57U, 0x3b5d81f8bd33f99aU, 0x3ceb5a18bba6217aU,
  0x3d26217a3e27dc7eU, 0xbd18495bbe000f24U, 0x3ddd81f83e115d4bU, 0xbdcfa9d93e1d7a66U,
  0xbc793237bd41d1b9U, 0x3ca6217a3bdd81f8U, 0xbdfca83f3df24628U, 0xbdfca83f3d800f24U,
  0xbc5d81f83ddd81f8U, 0x3dad0d8abdc547c1U, 0x3e35b49e3d26217aU, 0xbd793237bdeed020U,
  0x3d646e08bd115d4bU, 0xbe08b637bdb76fa2U, 0xbd793237be000f24U, 0xbdf93237be308392U,
  0x3e08b6373d41d1b9U, 0x3d86fb333d48bdc9U, 0xbc41d1b93e22ab72U, 0x3df24628bd8de743U,
  0x3c0a713b3d3ae5a9U, 0x3d26217a3ddd81f8U, 0xbd83852b3dc1d1b9U, 0x3dad0d8abe06fb33U,
  0x3e14d353be1d7a66U, 0xbdbae5a9bcb3f99aU, 0xbe1d7a66be1bbf63U, 0xbd793237be323e96U,
  0xbc5d81f8be168e57U, 0xbcf93237be246676U, 0xbca6217a3bdd81f8U, 0x3d800f24bd9f356aU,
  0xbdad0d8a3e0fa247U, 0xbd8a713bbd98495bU, 0xbd8de7433dad0d8aU, 0x3dd695e83d33f99aU,
  0x3e06fb333d5d81f8U, 0xbd33f99abd94d353U, 0x3c98495b3dcc33d1U, 0x3de0f8003db08392U,
  0x3ccfa9d9be299782U, 0xbe308392bde0f800U, 0xbe392aa6be1a045fU, 0xbdcfa9d9bca6217aU,
  0xbe0c2c3fbdf93237U, 0x3e06fb333df93237U, 0xbdd31fe1be168e57U, 0xbdb76fa2bd0a713bU,
  0xbd26217a3b5d81f8U, 0x3d115d4b3d1f356aU, 0xbdf24628bba6217aU, 0x3dfca83f3e2ec88eU,
  0x3e1bbf63bd800f24U, 0xbda2ab723da6217aU, 0xbde46e08bdf24628U, 0xbb5d81f83c26217aU,
  0xbde46e083deed020U, 0xbd41d1b9bc98495bU, 0xbdd695e83db76fa2U, 0xbc5d81f8bdfca83fU,
  0xbceb5a18bc98495bU, 0x3d9bbf63bd9bbf63U, 0x3ca6217a3bdd81f8U, 0xbe0c2c3fbdad0d8aU,
  0x3d915d4bbdd31fe1U, 0xbd9bbf63bd83852bU, 0x3d9f356a3de7e410U, 0xbd33f99abbdd81f8U,
  0x3d94d353be000f24U, 0xbd9bbf63bd03852bU, 0xbd915d4b3bdd81f8U, 0x3e18495b3d94d353U,
  0x3de46e083e26217aU, 0x3dcc33d1be08b637U, 0xbe000f24bda6217aU, 0xbd4fa9d93cdd81f8U,
  0x3d8de7433c41d1b9U, 0x3e115d4bbd41d1b9U, 0xbd800f24bd8a713bU, 0xbc793237be115d4bU,
  0x3e22ab723cb3f99aU, 0xbd33f99abd115d4bU, 0xbe08b6373bdd81f8U, 0xbdb76fa2bda99782U,
  0x3de0f800bd5d81f8U, 0x3d48bdc9bd1f356aU, 0x3da6217abe05402fU, 0xbcdd81f8be03852bU,
  0xbc0a713b3df24628U, 0xbd33f99a3e4016b5U, 0xbd9bbf63bc793237U, 0xbde46e083e1a045fU,
  0xbdeed0203dcc33d1U, 0xbe33f99abcdd81f8U, 0x3c5d81f83cb3f99aU, 0xbd86fb33bc0a713bU,
  0x3d33f99abd5695e8U, 0xbd915d4bbd2d0d8aU, 0x3d2d0d8abdb08392U, 0x3d48bdc93cc1d1b9U,
  0xbdeb5a18bde7e410U, 0x3ba6217a3e08b637U, 0x3e18495bbe03852bU, 0xbdd31fe1bd646e08U,
  0xbc0a713bbd5d81f8U, 0xbd03852bbd4fa9d9U, 0xbb5d81f83e1bbf63U, 0x3d646e08bdc547c1U,
  0xbc26217abda2ab72U, 0x3c26217a3cb3f99aU, 0xbdeb5a18bc98495bU, 0x3e06fb333e246676U,
  0x3d9bbf63bd800f24U, 0x3d646e083df93237U, 0xbc98495b3dcfa9d9U, 0x3e0c2c3fbe246676U,
  0x3de0f800bdc8bdc9U, 0xbcb3f99a3deb5a18U, 0xbadd81f83d915d4bU, 0x3d8de7433d33f99aU,
  0xbc26217abdfca83fU, 0x3e1bbf63be08b637U, 0xbde7e4103deb5a18U, 0xbde7e4103cdd81f8U,
  0x3d6b5a183d724628U, 0x3c8a713b3e0de743U, 0xbd8de7433d5d81f8U, 0x3db3f99abd115d4bU,
  0x3e13184fbceb5a18U, 0x3e1f356a3db08392U, 0xbcf932373d646e08U, 0x3de0f800bddd81f8U,
  0xbe18495b3e08b637U, 0xbe18495bbccfa9d9U, 0x3e01ca27be03852bU, 0xbd9bbf633db3f99aU,
  0xbbdd81f83d5695e8U, 0x3df246283ccfa9d9U, 0x3d2d0d8a3e115d4bU, 0xbe1a045f3de0f800U,
  0x3dc1d1b9bc98495bU, 0xbdf5bc2f3c98495bU, 0x3d03852b3cb3f99aU, 0xbd2d0d8a3c26217aU,
  0x3d9f356abdbae5a9U, 0xbd8a713b3cdd81f8U, 0x3d3ae5a9bc41d1b9U, 0xbe0a713bbe246676U,
  0x3dcfa9d93e1bbf63U, 0xbdcfa9d9bd4fa9d9U, 0xbd9f356a3e18495bU, 0x3e000f243ccfa9d9U,
  0x3e13184fbda2ab72U, 0xbd5d81f83d8a713bU, 0xbd33f99abd48bdc9U, 0x3deed020bccfa9d9U,
  0xbe0c2c3f3dbae5a9U, 0xbe115d4b3d4fa9d9U, 0x3c7932373d4fa9d9U, 0x3d83852bbe000f24U,
  0x3e0fa2473b5d81f8U, 0x3dcfa9d9bdf5bc2fU, 0x3d800f24be05402fU, 0x3e0fa247bd6b5a18U,
  0x3d48bdc93e26217aU, 0x3d115d4bbd646e08U, 0x3e0de7433dc8bdc9U, 0x3da6217a3da6217aU,
  0x3dcfa9d9bde46e08U, 0x3bdd81f83e1a045fU, 0x3dda0bf03deed020U, 0x3d5695e83c5d81f8U,
  0xbd2d0d8a3d915d4bU, 0xbdb08392be05402fU, 0x3d800f243bdd81f8U, 0xbdc8bdc93d03852bU,
  0x3e0de7433e0fa247U, 0x3cf93237bde0f800U, 0x3ccfa9d9bba6217aU, 0xbe0de743bd94d353U,
  0xbe14d3533deb5a18U, 0x3d2d0d8abdad0d8aU, 0xbceb5a183db08392U, 0x3ba6217a3e33f99aU,
  0x3df5bc2fbca6217aU, 0x3c5d81f83e05402fU, 0xbcb3f99abd0a713bU, 0xbc41d1b9be299782U,
  0xbe0a713b3d48bdc9U, 0xbdb083923c26217aU, 0x3dcfa9d93dad0d8aU, 0xbca6217abe13184fU,
  0x3ba6217a3e13184fU, 0xbda2ab723e000f24U, 0x3c98495b3b5d81f8U, 0x3d33f99abdda0bf0U,
  0xbcdd81f83df5bc2fU, 0xbde0f800be20f06eU, 0x3dda0bf03d2d0d8aU, 0xbd5d81f8bd2d0d8aU,
  0xbdc547c13d5695e8U, 0x3d6b5a18bd915d4bU, 0x3e06fb33be13184fU, 0x3de0f8003da6217aU,
  0xbdeb5a183bdd81f8U, 0x3ceb5a18bcb3f99aU, 0x3d724628be2b5286U, 0xbd26217a3e000f24U,
  0x3d33f99a3e01ca27U, 0x3dc1d1b93cb3f99aU, 0x3d800f24bdc547c1U, 0xbdda0bf0be08b637U,
  0xbc5d81f8be4016b5U, 0x3dda0bf0bd4fa9d9U, 0xbdb76fa23e13184fU, 0xbdbae5a93dcc33d1U,
  0xbddd81f83dad0d8aU, 0xbe13184fbe05402fU, 0xbddd81f8bd48bdc9U, 0x3d9f356abd5d81f8U,
  0x3d5d81f8bbdd81f8U, 0x3e3ca0adbd8de743U, 0xbdbae5a9bd2d0d8aU, 0x3d646e083df93237U,
  0x3de7e4103dd695e8U, 0x3c0a713b3da99782U, 0x3d115d4bbd9bbf63U, 0xbe1bbf63bddd81f8U,
  0xbd98495bbe1bbf63U, 0xbd115d4bbcb3f99aU, 0x3d94d3533d8a713bU, 0xbdda0bf0bd83852bU,
  0xbe115d4b3dd31fe1U, 0x3d26217abdb76fa2U, 0xbd83852bbceb5a18U, 0xbcc1d1b93ccfa9d9U,
  0xbcdd81f8bd33f99aU, 0x3c26217abe115d4bU, 0x3d6b5a183d8a713bU, 0x3de0f800bca6217aU,
  0xbdfca83f3e0a713bU, 0x3de7e4103d9f356aU, 0x3cf93237be35b49eU, 0xbdf932373d6b5a18U,
  0xbdb3f99abe0c2c3fU, 0x3c41d1b93d86fb33U, 0xbe0c2c3f3c98495bU, 0x3dbae5a93ba6217aU,
  0xbe18495bbe08b637U, 0xbde7e410bccfa9d9U, 0x3d26217a3c26217aU, 0x3e26217abd94d353U,
  0x3de46e08be2b5286U, 0x3bdd81f83e168e57U, 0xbdb76fa2bdc8bdc9U, 0x3c5d81f83e06fb33U,
  0xbe0fa2473e3ca0adU, 0x3dcc33d1bd115d4bU, 0x3dbe5bb13dd31fe1U, 0x3c26217a3e26217aU,
  0xbdd31fe13e22ab72U, 0x3cb3f99abd724628U, 0x3dd31fe13c26217aU, 0x3deb5a183c0a713bU,
  0x3e0a713bbe0c2c3fU, 0xbb5d81f8bddd81f8U, 0xbdb083923e03852bU, 0x3c26217abe1d7a66U,
  0xbe03852bbdcc33d1U, 0x3e4016b53ca6217aU, 0xbc0a713b3bdd81f8U, 0xbe20f06e3d5695e8U,
  0x3d5695e83dbae5a9U, 0x3e26217abdb76fa2U, 0x3db083923cb3f99aU, 0xbd98495b3dc8bdc9U,
  0x3e1bbf63be1f356aU, 0xbc5d81f8be2d0d8aU, 0x3dad0d8a3c98495bU, 0xbda6217abe0fa247U,
  0x3d9bbf633da6217aU, 0xbdb76fa2be0c2c3fU, 0x3cb3f99a3d41d1b9U, 0xbc8a713bbe27dc7eU,
  0x3c5d81f83cf93237U, 0xbe2b52863ba6217aU, 0xbd98495b3bdd81f8U, 0x3c0a713bbd6b5a18U,
  0xbe0a713bbda6217aU, 0x3d8a713bbccfa9d9U, 0x3deb5a183dbe5bb1U, 0x3d800f243d83852bU,
  0x3de7e4103df5bc2fU, 0xbe1a045f3d5695e8U, 0x3d9f356a3add81f8U, 0xbdfca83fbba6217aU,
  0xbe323e96badd81f8U, 0x3d33f99abd03852bU, 0xbdb08392bdf5bc2fU, 0x3cdd81f8be2ec88eU,
  0xbe20f06e3df24628U, 0xbdc8bdc93e1f356aU, 0xbe05402f3ddd81f8U, 0xbe27dc7e3e01ca27U,
  0x3dbe5bb13e03852bU, 0xbd26217a3db76fa2U, 0x3d83852b3e0a713bU, 0xbcdd81f8bd83852bU,
  0x3ca6217a3d646e08U, 0x3e115d4bbd5695e8U, 0x3d6b5a183dd31fe1U, 0xbdbe5bb1bd18495bU,
  0x3e03852b3e13184fU, 0xbccfa9d9be01ca27U, 0x3ba6217a3e05402fU, 0x3db08392be1bbf63U,
  0x3c8a713b3d94d353U, 0xbe2466763d793237U, 0x3dcfa9d93e0a713bU, 0xbd4fa9d93d5d81f8U,
  0x3d41d1b93b5d81f8U, 0x3df246283de46e08U, 0x3df246283e27dc7eU, 0xbc0a713bbc98495bU,
  0x3d1f356a3d6b5a18U, 0xbdfca83f3e1bbf63U, 0xbe06fb33bdd695e8U, 0xbd800f24bd83852bU,
  0xbd83852bbe000f24U, 0xbddd81f8bd94d353U, 0xbd724628bc26217aU, 0x3d115d4b3db76fa2U,
  0xbe08b6373d1f356aU, 0x3e03852bbdf24628U, 0x3df24628bd26217aU, 0xbdeb5a183c793237U,
  0x3ccfa9d9bdeb5a18U, 0x3d9bbf633dc547c1U, 0xbd8de743bd1f356aU, 0xbdc8bdc93de46e08U,
  0xbd800f243ba6217aU, 0x3dc8bdc9bdd31fe1U, 0x3d724628be0fa247U, 0xbceb5a18bdc547c1U,
  0x3dbe5bb13ca6217aU, 0x3dd695e83d6b5a18U, 0x3d3ae5a9bd9bbf63U, 0xbd4fa9d9bdc8bdc9U,
  0x3e08b637bd8de743U, 0x3de7e410bdb08392U, 0xbd86fb33bb5d81f8U, 0x3b5d81f8bd41d1b9U,
  0x3e20f06ebd41d1b9U, 0x3cc1d1b9bd03852bU, 0x3cc1d1b9bde46e08U, 0xbd98495bbdf5bc2fU,
  0xbe05402f3d5695e8U, 0x3c98495bbdfca83fU, 0xbd8de7433d800f24U, 0x3d33f99a3e1a045fU,
  0xbc0a713b3d646e08U, 0xbca6217a3cc1d1b9U, 0x3d33f99abde46e08U, 0xbd3ae5a93e14d353U,
  0xbdad0d8a3c5d81f8U, 0xbe0c2c3f3da2ab72U, 0x3dcc33d13deed020U, 0x3dfca83fbe08b637U,
  0x3d18495bbdf93237U, 0x3e22ab723dcc33d1U, 0x3e01ca27bd26217aU, 0x3d18495bbdbae5a9U,
  0xbe27dc7ebe2b5286U, 0xbdcfa9d93e000f24U, 0xbd115d4b3d0a713bU, 0xbd3ae5a9bc0a713bU,
  0xbdeb5a18be1a045fU, 0xbe115d4bbde46e08U, 0xbdbae5a9bd86fb33U, 0x3ddd81f83d915d4bU,
  0x3da6217abe3ae5a9U, 0xbc8a713bbd800f24U, 0xbc0a713bbdf24628U, 0xbdd695e8bd86fb33U,
  0xbe41d1b9be20f06eU, 0x3cc1d1b9bd646e08U, 0xbde46e08bdf5bc2fU, 0x3e13184fbcb3f99aU,
  0xbe0fa2473e115d4bU, 0x3c98495b3d83852bU, 0xbd18495bbe0a713bU, 0xbe26217a3da2ab72U,
  0xbd41d1b9be3ae5a9U, 0xbd4fa9d9be392aa6U, 0xbba6217a3e1f356aU, 0xbdcc33d1bdc1d1b9U,
  0x3dc547c13ba6217aU, 0x3cf93237be323e96U, 0xbdd31fe1bdd695e8U, 0xbd9bbf633e0fa247U,
  0xbd4fa9d9bd8de743U, 0xbd26217a3d8a713bU, 0xbdb083923b5d81f8U, 0xbe27dc7e3d86fb33U,
  0xbde0f8003cc1d1b9U, 0xbd5695e83d5d81f8U, 0x3d8a713bbdf24628U, 0x3d800f243d48bdc9U,
  0x3d5d81f8bdda0bf0U, 0x3da2ab723d03852bU, 0xbdb76fa2bceb5a18U, 0x3ca6217abd3ae5a9U,
  0x3e01ca27bd3ae5a9U, 0x3dda0bf0be03852bU, 0x3d6b5a183e3e5bb1U, 0x3e14d3533d800f24U,
  0x3e115d4b3da99782U, 0xbda6217abe06fb33U, 0xbe13184fbdfca83fU, 0xbe06fb333da6217aU,
  0xbdd31fe13db76fa2U, 0xbd9f356abe0a713bU, 0x3cdd81f83e0fa247U, 0xbdc547c1bd8de743U,
  0xbdf246283d26217aU, 0xbd2d0d8abdbe5bb1U, 0x3dbae5a9bdf93237U, 0x3e1f356abdbe5bb1U,
  0xbb5d81f83e0c2c3fU, 0x3d8a713b3d41d1b9U, 0x3d03852b3c5d81f8U, 0xbd8a713bbdda0bf0U,
  0xbe0c2c3fbe14d353U, 0xbe1a045f3ca6217aU, 0xbe2ec88e3e03852bU, 0xbd646e083e0c2c3fU,
  0xbe3ca0adbdb76fa2U, 0x3df246283bdd81f8U, 0x3db76fa2bc98495bU, 0xbe2997823de46e08U,
  0xbdeb5a18be22ab72U, 0x3dfca83fbd98495bU, 0xbd724628bdf24628U, 0x3d4fa9d93d98495bU,
  0xbe4a78cdbdd31fe1U, 0xbe13184fbc5d81f8U, 0xbdc1d1b93d48bdc9U, 0xbdcc33d13e14d353U,
  0x3d48bdc9bd646e08U, 0xbc8a713bbdb08392U, 0xbdb76fa2be01ca27U, 0xbd2d0d8abdf24628U,
  0x3de46e08bdcc33d1U, 0x3e0fa2473e3ae5a9U, 0xbe06fb333d86fb33U, 0x3d5d81f8bdc8bdc9U,
  0x3dda0bf03e0c2c3fU, 0xbd9bbf63be0fa247U, 0xbd9bbf633df24628U, 0xbe000f243d800f24U,
  0x3cc1d1b93d724628U, 0x3cc1d1b9bbdd81f8U, 0x3e168e57U, 0xbdb083923ca6217aU,
  0x3add81f8be2ec88eU, 0x3add81f8be115d4bU, 0x3d5d81f8badd81f8U, 0xbbdd81f8be14d353U,
  0xbdf93237bda2ab72U, 0xbdbe5bb1bda2ab72U, 0x3d83852bbe14d353U, 0xbe14d3533d8a713bU,
  0xbdd31fe13dd695e8U, 0x3db08392bde46e08U, 0xbcc1d1b93d646e08U, 0xbca6217a3d26217aU,
  0x3d33f99a3c8a713bU, 0x3e0de7433d03852bU, 0x3cdd81f8be3ae5a9U, 0xbe18495b3df24628U,
  0xbddd81f8bcc1d1b9U, 0xbd94d3533de7e410U, 0xbdb08392be392aa6U, 0xbe0fa2473c41d1b9U,
  0x3e115d4bbd48bdc9U, 0xbdcfa9d93ceb5a18U, 0x3d83852b3d793237U, 0x3d41d1b9bdd31fe1U,
  0x3db76fa23d9f356aU, 0xbe392aa6bc26217aU, 0xbd2d0d8abdcfa9d9U, 0xbc98495bbba6217aU,
  0x3dc8bdc9be01ca27U, 0xbde46e08bdf93237U, 0xbde0f8003de7e410U, 0x3e115d4b3c8a713bU,
  0xbd0a713b3d8de743U, 0xbd8a713b3e246676U, 0xbdbae5a9be115d4bU, 0xbcb3f99a3dcc33d1U,
  0x3dc547c1bd0a713bU, 0xbe33f99a3df24628U, 0xbdeed020bda99782U, 0x3e115d4b3d915d4bU,
  0xbe000f243dc8bdc9U, 0xbd86fb33bdda0bf0U, 0x3e000f2400000000U, 0x3e1f356abd8de743U,
  0x3cc1d1b93dc547c1U, 0x3e27dc7e3d6b5a18U, 0xbd6b5a183db08392U, 0xbdd695e8bccfa9d9U,
  0xbe0de7433d83852bU, 0xbe3ca0adbe246676U, 0xbda6217abd1f356aU, 0x3dfca83f3d83852bU,
  0x3e168e57bca6217aU, 0x3d94d35300000000U, 0xbc8a713bbdd31fe1U, 0xbd724628be4702c5U,
  0x3ddd81f8bd3ae5a9U, 0x3add81f8bd9bbf63U, 0xbe4016b5be06fb33U, 0xbdfca83f3d18495bU,
  0xbd2d0d8abc5d81f8U, 0x3c41d1b9be18495bU, 0xbdbae5a9bdcc33d1U, 0x3dbe5bb13d83852bU,
  0xbdd31fe1bd33f99aU, 0x3ddd81f8be438cbdU, 0xbdc547c1bd33f99aU, 0xbadd81f8be0a713bU,
  0x3e33f99a3d2d0d8aU, 0xbd86fb333df93237U, 0x3e1d7a663d4fa9d9U, 0xbe000f24be01ca27U,
  0xbe0de743bc0a713bU, 0xbd724628be299782U, 0x3d33f99abe000f24U, 0xbd98495b00000000U,
  0x3e1a045f3dda0bf0U, 0x3e14d353bdf5bc2fU, 0xbd48bdc93d115d4bU, 0x3d98495bbc0a713bU,
  0xbe4a78cd3d33f99aU, 0x3add81f8be2d0d8aU, 0xbca6217abc26217aU, 0x3d9f356abd6b5a18U,
  0xbe0c2c3fbdbe5bb1U, 0x3df932373ca6217aU, 0x3e000f243e01ca27U, 0x3d724628be4702c5U,
  0xbe323e96bdd695e8U, 0x3d98495bbd33f99aU, 0xbde7e41000000000U, 0x3e168e573dfca83fU,
  0x3e2997823e1bbf63U, 0xbd5695e8bd1f356aU, 0xbe2d0d8a3c5d81f8U, 0x3dad0d8a3ca6217aU,
  0x3d5695e83d03852bU, 0x3bdd81f8be03852bU, 0xbe4702c53d83852bU, 0x3ca6217abd6b5a18U,
  0xbcb3f99abdc8bdc9U, 0xbda99782be1a045fU, 0x3d7246283d18495bU, 0xbd646e08bc98495bU,
  0x3d3ae5a9bdcfa9d9U, 0x3c5d81f8bddd81f8U, 0x3d33f99a3d48bdc9U, 0x3e392aa63e14d353U,
  0x3dd31fe13dcfa9d9U, 0x3e2b52863dcfa9d9U, 0xbccfa9d93e18495bU, 0x3d724628bd8de743U,
  0x3dd695e83d1f356aU, 0xbd9bbf633dfca83fU, 0x3b5d81f8bd793237U, 0x3cc1d1b9bca6217aU,
  0xbc26217a3deed020U, 0xbe3ae5a9bd5d81f8U, 0xbdeed0203d115d4bU, 0x3d4fa9d93de46e08U,
  0x3e3083923e115d4bU, 0x3deb5a18bdf24628U, 0xbdeed020bcdd81f8U, 0x3dad0d8a3d9f356aU,
  0x3c98495bbda99782U, 0xbbdd81f83de7e410U, 0x3e05402fbd94d353U, 0xbda99782bd800f24U,
  0xbd5695e8bdc547c1U, 0x3e01ca273d9bbf63U, 0x3de0f800bc793237U, 0x3dd31fe13dc547c1U,
  0xbddd81f83e000f24U, 0x3dfca83fbd646e08U, 0xbe26217abe392aa6U, 0xbcf93237be376fa2U,
  0x3cdd81f83d41d1b9U, 0x3de46e083d9bbf63U, 0x3dc8bdc9bde7e410U, 0xbccfa9d9be3e5bb1U,
  0xbe3ae5a9bc26217aU, 0x3d7932373d915d4bU, 0xbd9f356a3c41d1b9U, 0xbd800f24be06fb33U,
  0x3c793237bcb3f99aU, 0xbcdd81f8bcc1d1b9U, 0xbd26217a3ba6217aU, 0xbd1f356a3d33f99aU,
  0xbcdd81f83dc8bdc9U, 0xbd7246283d4fa9d9U, 0xbc0a713bbe0de743U, 0x3c8a713bbdb3f99aU,
  0x3d48bdc9bd33f99aU, 0x3dcfa9d9bc0a713bU, 0x3d646e083e06fb33U, 0xbddd81f8bd5d81f8U,
  0x3e0de743be03852bU, 0x3da6217abd83852bU, 0x3c98495b3da99782U, 0xbdb3f99abe168e57U,
  0x3ca6217abd5695e8U, 0x3d646e08bdeed020U, 0xbdcc33d13d18495bU, 0xbcb3f99a3d18495bU,
  0xbe22ab723dcfa9d9U, 0x3e0fa247be27dc7eU, 0x3d6b5a18bc98495bU, 0xbb5d81f8be0fa247U,
  0x3e27dc7ebccfa9d9U, 0x3dbae5a93db3f99aU, 0x3d646e08bcdd81f8U, 0x3d33f99abd4fa9d9U,
  0x3d4fa9d93add81f8U, 0x3db3f99a3e22ab72U, 0x3bdd81f83ca6217aU, 0xbe0a713bbdb08392U,
  0x3b5d81f83e0c2c3fU, 0xbdb76fa2bc98495bU, 0xbd26217a3ddd81f8U, 0x3dd31fe1bde46e08U,
  0xbe0a713bbdb08392U, 0xbd4fa9d93d8a713bU, 0x3deb5a18bdb3f99aU, 0xbe000f243d1f356aU,
  0xbd83852b3e06fb33U, 0xbe06fb333e168e57U, 0x3dc8bdc93de7e410U, 0xbe0c2c3fbc41d1b9U,
  0x3d26217abe14d353U, 0xbceb5a183e22ab72U, 0xbd98495bbdb08392U, 0x3d0a713bbe2d0d8aU,
  0x3db3f99a3d3ae5a9U, 0xbd94d3533e0a713bU, 0x3d5d81f8be0a713bU, 0x3dc1d1b93dd695e8U,
  0xbe26217abc26217aU, 0x3ddd81f8bdd695e8U, 0xbdf246283e1a045fU, 0xbd5695e8be246676U,
  0x3dcc33d1be1f356aU, 0xbceb5a18bd33f99aU, 0x3b5d81f8bdf24628U, 0xbe115d4bbe2b5286U,
  0xbe1d7a663ddd81f8U, 0xbdd695e83c0a713bU, 0x3db083923e18495bU, 0x3e27dc7e3d5695e8U,
  0xbda6217a3dd31fe1U, 0xbd646e083d4fa9d9U, 0xbd915d4b3e376fa2U, 0x3d9f356abdbae5a9U,
  0xbdc1d1b9bccfa9d9U, 0xbdf24628be299782U, 0xbde0f800bdda0bf0U, 0xbd26217a3d646e08U,
  0x3d26217a3d26217aU, 0xbdc1d1b9bd915d4bU, 0x3c8a713b3d9f356aU, 0xbd4fa9d93e115d4bU,
  0x3d5695e8bd646e08U, 0x3e000f243d98495bU, 0xbde0f800bdbae5a9U, 0x3c8a713bbd98495bU,
  0x3add81f8bdfca83fU, 0x3d0a713b3dcfa9d9U, 0xbde7e410be0a713bU, 0xbd03852b3db08392U,
  0xbde7e4103dcfa9d9U, 0xbdc8bdc93e4fa9d9U, 0x3e35b49ebde46e08U, 0xbe000f24bdf24628U,
  0xbcdd81f83db3f99aU, 0xbe35b49ebd9bbf63U, 0xbdb76fa2bd800f24U, 0x3bdd81f800000000U,
  0x3e1a045fbc0a713bU, 0x3bdd81f83c5d81f8U, 0xbd03852b3e246676U, 0xbe4c33d1bdad0d8aU,
  0xbdda0bf03dbae5a9U, 0xbe168e573d724628U, 0xbe03852bbd0a713bU, 0x3df5bc2fbe01ca27U,
  0xbe1d7a66bdeed020U, 0x3cc1d1b900000000U, 0xbcf93237bd9bbf63U, 0x3cc1d1b9bd18495bU,
  0xbdbae5a9bd9f356aU, 0xbe0c2c3fbd86fb33U, 0x3c8a713b3dcc33d1U, 0x3d8a713b3e14d353U,
  0xbd41d1b9bd915d4bU, 0x3ddd81f83ba6217aU, 0x3d6b5a18be246676U, 0x3dbe5bb1bc0a713bU,
  0xbe392aa6bc0a713bU, 0x3c5d81f83dd31fe1U, 0xbd115d4b3c0a713bU, 0xbe0fa247bdc547c1U,
  0xbc5d81f83d1f356aU, 0x3dc8bdc93add81f8U, 0x3d03852bbc5d81f8U, 0xbe438cbd3d1f356aU,
  0xbe4c33d1be1a045fU, 0x3d03852bbc26217aU, 0xbdcc33d1bd800f24U, 0x3d8de743bd800f24U,
  0x3dcfa9d9bd94d353U, 0x3e20f06ebdeed020U, 0x3dad0d8a3dc1d1b9U, 0x3dd31fe13d9bbf63U,
  0xbe2ec88e3d646e08U, 0xbe1d7a663d1f356aU, 0xbd2d0d8abd9bbf63U, 0xbc26217abe115d4bU,
  0xbdad0d8abc5d81f8U, 0xbc26217abe14d353U, 0x3ca6217abde0f800U, 0x3d9f356abe2ec88eU,
  0x3e20f06ebdf5bc2fU, 0x3e13184fbdcfa9d9U, 0xbdb083923e20f06eU, 0xbccfa9d9be06fb33U,
  0xbe1bbf63be13184fU, 0x3e246676bd9bbf63U, 0xbd115d4b3d5d81f8U, 0x3c5d81f8bdc8bdc9U,
  0xbd7932373dc547c1U, 0xbe01ca27bdb08392U, 0xbd26217abe2b5286U, 0xbc26217a3dda0bf0U,
  0xbd915d4bbd6b5a18U, 0x3df93237bd915d4bU, 0x3dc547c13e06fb33U, 0xbde7e410bd724628U,
  0x3deb5a18be115d4bU, 0xbd646e083b5d81f8U, 0xbda6217abdb76fa2U, 0xbde7e4103d26217aU,
  0xbcc1d1b93de0f800U, 0x3d793237bd03852bU, 0xbd03852bbd5d81f8U, 0x3e1f356abd646e08U,
  0xbbdd81f8bdfca83fU, 0xbdd695e8be115d4bU, 0x3d48bdc9be168e57U, 0x3b5d81f8be2b5286U,
  0xbe18495bbd9f356aU, 0xbda6217a3e323e96U, 0x3d8de743bdb76fa2U, 0xbba6217a3dcc33d1U,
  0xbdcfa9d9bba6217aU, 0x3db76fa2bd8de743U, 0xbd18495b3add81f8U, 0xbe2b5286be308392U,
  0x3da6217abda2ab72U, 0x3da6217a3e4deed5U, 0x3e1bbf633e308392U, 0xbe000f24bd03852bU,
  0x3d5695e83da99782U, 0xbdda0bf0be22ab72U, 0xbcb3f99a3db08392U, 0x3b5d81f83e1f356aU,
  0xbdb76fa23d4fa9d9U, 0xbd5695e8badd81f8U, 0xbe26217a3e0c2c3fU, 0x3ceb5a183e1d7a66U,
  0xbe05402f3d86fb33U, 0xbe27dc7ebdbae5a9U, 0x3d5695e8bdb3f99aU, 0x3d1f356abb5d81f8U,
  0x3e1d7a66bd48bdc9U, 0x3e18495bbccfa9d9U, 0x3deed0203dfca83fU, 0xbdc1d1b93e0de743U,
  0x3da2ab72bd2d0d8aU, 0xbdcfa9d9bdfca83fU, 0xbdcc33d1bde7e410U, 0xbe18495b3dad0d8aU,
  0x3dda0bf03cdd81f8U, 0x3db08392bc0a713bU, 0xbd83852b3da99782U, 0x3d94d353bd115d4bU,
  0xbd646e083e14d353U, 0x3dd31fe13e08b637U, 0x3deb5a183d5d81f8U, 0x3deb5a183e1a045fU,
  0xbdf5bc2f3dcc33d1U, 0x3df24628bd5d81f8U, 0x3dbae5a93e26217aU, 0xbdad0d8a3df5bc2fU,
  0x3e08b637bd18495bU, 0x3cb3f99a3d8de743U, 0xbe1a045fbdc8bdc9U, 0x3e2466763ceb5a18U,
  0xbe01ca273d915d4bU, 0xbe06fb333e0a713bU, 0xbd6b5a183dc1d1b9U, 0xbc5d81f83e03852bU,
  0x3c26217abd86fb33U, 0x3dfca83fbe0de743U, 0x3dbe5bb13c793237U, 0xbdb76fa23dbae5a9U,
  0xbdbae5a9bd41d1b9U, 0x3d9bbf63bdf24628U, 0x3e13184f3c26217aU, 0xbd9f356a3e308392U,
  0x3dad0d8abccfa9d9U, 0x3e05402fbbdd81f8U, 0x3c41d1b9be0de743U, 0x3e0c2c3f3d8de743U,
  0x3d7932373dc8bdc9U, 0x3add81f83dda0bf0U, 0xbd793237be0de743U, 0xbe3ca0ad3d26217aU,
  0x3ccfa9d9be0fa247U, 0xbd724628be1bbf63U, 0x3dda0bf03add81f8U, 0xbe1a045fbe4fa9d9U,
  0x3d83852b3db08392U, 0x3db08392bdda0bf0U, 0x3d83852b3e3ae5a9U, 0xbe20f06ebd86fb33U,
  0xbe05402fbe1f356aU, 0x3df24628bbdd81f8U, 0xbca6217abdeed020U, 0x3c8a713b3ddd81f8U,
  0x3df5bc2fbd800f24U, 0xbe27dc7ebda99782U, 0x3dfca83fbd1f356aU, 0xbd3ae5a93de7e410U,
  0xbd98495b3c98495bU, 0x3df246283db3f99aU, 0xbc26217abdb76fa2U, 0xbe3ca0ad3d646e08U,
  0xbdeed020bbdd81f8U, 0x3df5bc2fbd793237U, 0x3d8de743be06fb33U, 0xbdc1d1b9be05402fU,
  0x3d7932373cb3f99aU, 0x3e0a713bbd800f24U, 0xbe2466763db76fa2U, 0xbdbae5a9bdb08392U,
  0x3d800f24bd3ae5a9U, 0x3add81f8bd94d353U, 0x3dd695e83db3f99aU, 0xbda997823e376fa2U,
  0xbdf246283d9f356aU, 0xbba6217a3dad0d8aU, 0xbe33f99a3d5695e8U, 0x3d2d0d8abba6217aU,
  0xbcf93237be3ae5a9U, 0x3c8a713b3d2d0d8aU, 0x3d8de743bde46e08U, 0x3ddd81f83e22ab72U,
  0xbc0a713bbd41d1b9U, 0x3d3ae5a9be13184fU, 0x3e0fa247bdeed020U, 0x3dc8bdc9bc0a713bU,
  0xbd26217abd2d0d8aU, 0xbba6217a3e168e57U, 0xbe115d4bbdf24628U, 0xbc98495b3e246676U,
  0xbda2ab72bd3ae5a9U, 0xbd1f356a3e299782U, 0xbd98495bbde7e410U, 0xbd4fa9d9bbdd81f8U,
  0x3deed0203d793237U, 0x3d33f99abe0fa247U, 0xbdcc33d13d800f24U, 0x3da2ab72bdc8bdc9U,
  0x3add81f8be4547c1U, 0xbc41d1b9bdb3f99aU, 0x3dbae5a93de0f800U, 0xbc26217a3e0de743U,
  0x3dcfa9d93c8a713bU, 0x3e27dc7e3d48bdc9U, 0xbd115d4b00000000U, 0xbe1d7a663dcfa9d9U,
  0x3dd695e8bd0a713bU, 0xbe05402fbe000f24U, 0xbe3083923ddd81f8U, 0x3df246283d1f356aU,
  0x3dd695e8bdb3f99aU, 0xbd4fa9d93d724628U, 0x3e0fa247be08b637U, 0x3db3f99a3de46e08U,
  0x3d03852b3d3ae5a9U, 0x3d2d0d8a3dcfa9d9U, 0x3d115d4b3da2ab72U, 0xbd86fb333d9bbf63U,
  0xbd8a713b3df5bc2fU, 0xbe438cbdbe33f99aU, 0xbd724628bc793237U, 0xbd4fa9d9be1d7a66U,
  0xbe392aa6be392aa6U, 0x3d793237be18495bU, 0xbe438cbdbd9f356aU, 0xbd0a713bbd26217aU,
  0xbdeed020bdb08392U, 0xbdf93237bd6b5a18U, 0xbe115d4bbcc1d1b9U, 0xbceb5a183e1d7a66U,
  0xbd5d81f8bcb3f99aU, 0xbe22ab723db3f99aU, 0xbdbae5a93cdd81f8U, 0x3da6217a3dc8bdc9U,
  0x3d115d4b3e308392U, 0x3d03852b3d793237U, 0x3df5bc2fbb5d81f8U, 0x3d33f99a3e2b5286U,
  0xbcc1d1b93d86fb33U, 0x3d33f99a3d48bdc9U, 0x3d4fa9d93dcc33d1U, 0x3e35b49ebd86fb33U,
  0x3e0c2c3f3e1bbf63U, 0xbd4fa9d9bdeb5a18U, 0x3d8a713b3df24628U, 0x3e14d3533db3f99aU,
  0x3e05402f3e4016b5U, 0xbdb76fa23e299782U, 0xbdf5bc2f3deed020U, 0x3d94d353bd8a713bU,
  0x3dfca83fbd9bbf63U, 0xbde7e410be13184fU, 0xbdb08392bdc547c1U, 0x3dd695e8bd83852bU,
  0xbdb3f99a3dda0bf0U, 0x3df24628be35b49eU, 0x3e27dc7e3dcc33d1U, 0x3dcfa9d93e48bdc9U,
  0x3e35b49e3d18495bU, 0x3d5695e8bdbae5a9U, 0xbdf5bc2f3dc1d1b9U, 0x3e323e96bde46e08U,
  0x3de0f8003d03852bU, 0x3d3ae5a9bd5695e8U, 0x3dc547c13df24628U, 0x3da997823b5d81f8U,
  0x3ccfa9d93e0c2c3fU, 0x3d724628be13184fU, 0x3df5bc2fbcc1d1b9U, 0xbccfa9d9be3ae5a9U,
  0xbd6b5a183c0a713bU, 0xbd5d81f8bdf93237U, 0x3df93237bc793237U, 0xbd33f99a3db76fa2U,
  0x3d800f243d793237U, 0x3dcfa9d93e22ab72U, 0xbe2d0d8abdeed020U, 0xbd5d81f83d915d4bU,
  0x3ddd81f8bd48bdc9U, 0x3db083923c26217aU, 0xbd26217abd2d0d8aU, 0x3ddd81f83deed020U,
  0xbe1f356a3cf93237U, 0xbca6217abd48bdc9U, 0x3d9f356a3cf93237U, 0xbbdd81f8bcb3f99aU,
  0x3de7e4103de0f800U, 0x3e03852bbdb3f99aU, 0xbd33f99abdb76fa2U, 0x3de46e083c5d81f8U,
  0x3add81f8bcdd81f8U, 0xbdc8bdc93e168e57U, 0xbe1f356abde46e08U, 0x3d48bdc9bda99782U,
  0xbe1f356abadd81f8U, 0xbd98495bbe20f06eU, 0xbd03852bbda2ab72U, 0x3dd31fe1bd793237U,
  0x3df932373c98495bU, 0x3dcfa9d9bd915d4bU, 0x3c0a713b3deed020U, 0xbd7246283e2b5286U,
  0x3e20f06ebde7e410U, 0x3d98495b3db08392U, 0x3dbe5bb13bdd81f8U, 0xbadd81f83c8a713bU,
  0x3d646e083d1f356aU, 0x3d793237bc98495bU, 0xbd26217abd33f99aU, 0x3de46e083dda0bf0U,
  0xbd800f243c8a713bU, 0x3e323e963deed020U, 0xbd8a713bbdeb5a18U, 0xbdf5bc2fbd86fb33U,
  0x3d8de743bca6217aU, 0x3c7932373cc1d1b9U, 0x3e1f356a3de7e410U, 0xbd2d0d8a3df24628U,
  0xbb5d81f8bd793237U, 0xbe5164dd3d33f99aU, 0x3db3f99a3d86fb33U, 0x3d2d0d8abd724628U,
  0x3e0c2c3fbe05402fU, 0x3d0a713b3d03852bU, 0x3c26217a3e22ab72U, 0x3d915d4b3dbae5a9U,
  0x3db76fa23cc1d1b9U, 0xbe33f99a3d5695e8U, 0xbe115d4b3de7e410U, 0x3bdd81f83d18495bU,
  0x3ca6217abdd695e8U, 0xbd4fa9d93d6b5a18U, 0x3df5bc2fbdf24628U, 0x3cf932373cc1d1b9U,
  0xbe4c33d1bdbe5bb1U, 0x3db3f99abe0c2c3fU, 0x3df246283d724628U, 0x3d7246283ccfa9d9U,
  0x3db76fa2bdcfa9d9U, 0xbe20f06e3dfca83fU, 0xbe3ae5a93db76fa2U, 0xbd83852bbe05402fU,
  0x3deb5a18bc41d1b9U, 0x3ccfa9d93d793237U, 0xbe4702c5bd98495bU, 0x3ccfa9d93d86fb33U,
  0x3dda0bf0be0fa247U, 0xbcc1d1b9bc98495bU, 0xbdcfa9d93db08392U, 0x3df24628bdb3f99aU,
  0xbdf24628bc8a713bU, 0xbddd81f8bdd31fe1U, 0xbdf932373e0fa247U, 0xbdcfa9d93d8de743U,
  0x3deed0203dfca83fU, 0xbdd31fe1bd03852bU, 0xbdb3f99a3dc1d1b9U, 0x3ddd81f83e54dae5U,
  0x3d86fb33bd915d4bU, 0x3d5695e83db76fa2U, 0xbdcc33d13ceb5a18U, 0xbddd81f83e246676U,
  0x3e1f356a3dd31fe1U, 0x3e0fa247be14d353U, 0xbe2d0d8abd646e08U, 0xbde0f8003e13184fU,
  0x3b5d81f83d3ae5a9U, 0x3c98495b3e05402fU, 0xbe1d7a663de0f800U, 0xbde46e08be22ab72U,
  0xbdc547c1bc26217aU, 0xbda2ab723d5695e8U, 0x3cc1d1b93e0fa247U, 0xbcdd81f8bd48bdc9U,
  0x3c41d1b93dc547c1U, 0xbcf93237bdc547c1U, 0xbe06fb33bcb3f99aU, 0x3da997823e22ab72U,
  0x3db76fa23db3f99aU, 0x3d3ae5a9bd724628U, 0xbe115d4b3d915d4bU, 0xbdcfa9d9bd9bbf63U,
  0xbe4016b5be4c33d1U, 0x3cf93237bdad0d8aU, 0xbe14d3533dad0d8aU, 0xbe2997823d724628U,
  0xbdbae5a93d48bdc9U, 0xbe168e57be308392U, 0xbe13184fbd800f24U, 0x3e0fa2473dcfa9d9U,
  0x3d4fa9d93e05402fU, 0xbc8a713bbe115d4bU, 0x3e376fa2bd48bdc9U, 0xbadd81f83e246676U,
  0x3dad0d8abd793237U, 0xbba6217abda6217aU, 0x3c5d81f83d26217aU, 0xbdf93237be14d353U,
  0xbd4fa9d93b5d81f8U, 0xbccfa9d9bdcfa9d9U, 0xbd03852bbd115d4bU, 0x3d5d81f83de46e08U,
  0x3d1f356a3e115d4bU, 0xbdcc33d13ca6217aU, 0xbd9bbf633c0a713bU, 0xbd5695e8bd915d4bU,
  0xbd2d0d8abd98495bU, 0x3d4fa9d9bdc8bdc9U, 0xbcdd81f83d800f24U, 0x3d8de743bba6217aU,
  0x3d33f99a3df24628U, 0x3e115d4b3dad0d8aU, 0x3deb5a18bdbae5a9U, 0xbdf93237bd03852bU,
  0x3c793237bc41d1b9U, 0xbe2997823d800f24U, 0xbd9f356a3e0de743U, 0xbe4deed53df93237U,
  0xbcb3f99abda99782U, 0x3de7e4103cb3f99aU, 0xbde7e4103d9bbf63U, 0xbadd81f83cc1d1b9U,
  0xbe08b637bceb5a18U, 0xbde0f8003c5d81f8U, 0xbd5d81f83add81f8U, 0x3dbae5a93e22ab72U,
  0xbdb76fa23dd31fe1U, 0xbdcfa9d9bc8a713bU, 0x3e26217a3d9bbf63U, 0x3e33f99a3df5bc2fU,
  0x3e0a713b3dbe5bb1U, 0xbdd31fe13d724628U, 0xbdf246283e1f356aU, 0x3da2ab723d94d353U,
  0xbd2d0d8a3dd31fe1U, 0xbe18495b3ca6217aU, 0x3db76fa2bd2d0d8aU, 0x3de0f800be27dc7eU,
  0xbcc1d1b93d9f356aU, 0x3ddd81f83e115d4bU, 0x3d33f99a3d41d1b9U, 0x3db3f99abd33f99aU,
  0xbd800f243bdd81f8U, 0xbdcc33d13e22ab72U, 0x3dfca83f3dc8bdc9U, 0xbd9bbf633ddd81f8U,
  0xbde0f800bca6217aU, 0xbddd81f83e08b637U, 0x3d03852bbe01ca27U, 0x3deed020bdb08392U,
  0x3df5bc2fbdbe5bb1U, 0xbde7e410be115d4bU, 0x3cdd81f83de46e08U, 0xbdf24628bd86fb33U,
  0x3db083923d724628U, 0x3e05402f3d48bdc9U, 0xbe000f243d3ae5a9U, 0xbceb5a183d48bdc9U,
  0x3c5d81f8bd2d0d8aU, 0xbe1f356a3bdd81f8U, 0xbd5d81f83d86fb33U, 0xbde7e4103e18495bU,
  0xbe27dc7e3dc8bdc9U, 0x3e1d7a66be168e57U, 0xbd5d81f83df24628U, 0xbd18495b3c26217aU,
  0x3c98495b3c98495bU, 0x3d1f356abe06fb33U, 0xbe168e573e1d7a66U, 0xbd9bbf633dda0bf0U,
  0x3c8a713bbdb3f99aU, 0xbdeed020bdf93237U, 0xbd41d1b93ba6217aU, 0x3dc8bdc93e115d4bU,
  0x3ceb5a183e2b5286U, 0xbd33f99abe0c2c3fU, 0x3e18495bbca6217aU, 0x3d83852b3d86fb33U,
  0x3dc547c13e392aa6U, 0x3ca6217a3dc8bdc9U, 0x3da2ab723d83852bU, 0x3b5d81f8bdad0d8aU,
  0xbe1bbf63be05402fU, 0xbe14d3533da2ab72U, 0xbb5d81f8bd18495bU, 0x3e323e96bd86fb33U,
  0xbd41d1b93cc1d1b9U, 0xbd6b5a183e03852bU, 0x3add81f83e06fb33U, 0x3de46e08bd1f356aU,
  0x3d03852bbd2d0d8aU, 0x3d33f99a3db08392U, 0x3d33f99a3dda0bf0U, 0xbbdd81f8bd86fb33U,
  0xbbdd81f83c793237U, 0xbdd695e83c5d81f8U, 0x3d83852bbd793237U, 0x3d48bdc9bd1f356aU,
  0x3bdd81f8bcc1d1b9U, 0x3e2b52863da6217aU, 0x3e01ca273c26217aU, 0x3d793237bd41d1b9U,
  0xbc7932373e08b637U, 0xbc98495b3ca6217aU, 0xbe0a713b3e1a045fU, 0xbdbe5bb13cdd81f8U,
  0x3d1f356abe06fb33U, 0xbdf5bc2f3e14d353U, 0xbd3ae5a9bda2ab72U, 0xbda6217a3dad0d8aU,
  0xbde0f800bd724628U, 0xbdeb5a183c0a713bU, 0xbda2ab723e03852bU, 0xbde7e4103db08392U,
  0xbdf24628bd8a713bU, 0x3d0a713bbe26217aU, 0x3d8de743bb5d81f8U, 0xbe2ec88e3ceb5a18U,
  0xbdbae5a93df93237U, 0x3deed0203d41d1b9U, 0xbdb76fa2be0c2c3fU, 0xbdb3f99a3dd695e8U,
  0x3d8a713b3de0f800U, 0x3cc1d1b93d48bdc9U, 0xbd8de7433da6217aU, 0xbcdd81f8bd793237U,
  0xbc41d1b93dd695e8U, 0xbe06fb333d33f99aU, 0xbd6b5a183de0f800U, 0xbd41d1b9bceb5a18U,
  0x3e26217abcdd81f8U, 0xbdda0bf0bdb3f99aU, 0xbddd81f83d98495bU, 0xbe08b6373ddd81f8U,
  0x3e000f243bdd81f8U, 0xbe0c2c3fbda6217aU, 0xbe01ca273d9f356aU, 0xbe01ca27bd724628U,
  0x3e115d4bbd8a713bU, 0xbd0a713b3e26217aU, 0x3d33f99abd0a713bU, 0x3de7e410bc793237U,
  0xbbdd81f83e1bbf63U, 0x3e27dc7e3e18495bU, 0x3de7e410bd793237U, 0xbdbae5a93dc1d1b9U,
  0x3d83852b3dbae5a9U, 0xbdda0bf0bcf93237U, 0x3db76fa2badd81f8U, 0xbdb76fa2bcb3f99aU,
  0x3e2997823dc8bdc9U, 0x3c0a713b3de46e08U, 0xbdb08392bdb76fa2U, 0xbdd31fe1bda2ab72U,
  0xbe1f356a3e03852bU, 0x3d5695e8be20f06eU, 0x3e0c2c3f3e18495bU, 0x3c7932373d2d0d8aU,
  0x3dda0bf03d94d353U, 0xbc41d1b9bd8a713bU, 0x3d48bdc9bc0a713bU, 0x3ddd81f83d5d81f8U,
  0xbdda0bf0be13184fU, 0xbd4fa9d9bdd695e8U, 0xbe1d7a663d33f99aU, 0x3df24628bc0a713bU,
  0xbdeb5a18be000f24U, 0x3e33f99abc8a713bU, 0x3b5d81f83cdd81f8U, 0xbc41d1b93dd31fe1U,
  0x3db3f99abda99782U, 0x3e13184fbcdd81f8U, 0x3c5d81f83e26217aU, 0xbd18495bbd26217aU,
  0xbd48bdc93d8de743U, 0x3cb3f99abc0a713bU, 0x3df246283c98495bU, 0x3da997823d800f24U,
  0xbd8de743bdf5bc2fU, 0xbe1f356a3d2d0d8aU, 0xbc793237bbdd81f8U, 0xbdf246283d03852bU,
  0x3c8a713b3cf93237U, 0x3e0de743bcf93237U, 0xbd86fb333dcc33d1U, 0xbdfca83fbdbe5bb1U,
  0xbe000f243cf93237U, 0x3c5d81f8bd86fb33U, 0xbe0de743be05402fU, 0xbc0a713b3c98495bU,
  0xbdb3f99abde7e410U, 0xbe376fa2bd03852bU, 0x3deed0203dad0d8aU, 0xbd18495bbdc8bdc9U,
  0x3db3f99abcc1d1b9U, 0x3deb5a18bbdd81f8U, 0x3d18495b3d0a713bU, 0xbdc547c1bd18495bU,
  0xbd86fb333e1a045fU, 0xbdfca83f3e20f06eU, 0x3dc8bdc93ca6217aU, 0xbddd81f8be168e57U,
  0xbdf932373ddd81f8U, 0xbc7932373dad0d8aU, 0x3d18495bbdda0bf0U, 0xbde46e083dc8bdc9U,
  0x3d98495b3e08b637U, 0x3b5d81f8bd41d1b9U, 0xbe168e57bd8de743U, 0xbd94d3533e2b5286U,
  0xbc8a713bbdf5bc2fU, 0xbe2997823d8de743U, 0xbddd81f83d3ae5a9U, 0xbd26217a3deb5a18U,
  0xbe115d4b3dc1d1b9U, 0xbe1bbf63be1f356aU, 0x3d26217abcdd81f8U, 0xbcdd81f83d8de743U,
  0x3e115d4bbe05402fU, 0x3e03852b3e20f06eU, 0xbd9bbf63bd6b5a18U, 0xbdcc33d1bda6217aU,
  0xbd6b5a18bc98495bU, 0xbcf93237bc98495bU, 0xbc0a713bbd26217aU, 0xbd800f24bc5d81f8U,
  0xbe0a713b3da99782U, 0xbdcfa9d93e2ec88eU, 0x3e14d353bd115d4bU, 0xbc0a713b3db08392U,
  0xbd98495b3e115d4bU, 0xbdf5bc2f3e13184fU, 0x3e1d7a66bdc8bdc9U, 0xbdd31fe1be0c2c3fU,
  0x3d9f356a3dc1d1b9U, 0xbe13184f3df93237U, 0xbcb3f99a3e13184fU, 0xbca6217abd915d4bU,
  0x3e27dc7e3dc547c1U, 0x3d1f356a3e246676U, 0x3df93237bdc547c1U, 0x3de0f8003d115d4bU,
  0x3da99782bd94d353U, 0xbd6b5a18bba6217aU, 0x3dda0bf03d9f356aU, 0xbd5d81f83dd31fe1U,
  0x3e246676bd3ae5a9U, 0xbdfca83fbdb76fa2U, 0x3e000f24bda2ab72U, 0x3e0c2c3fbccfa9d9U,
  0x3d41d1b9bd8de743U, 0x3e1f356abde46e08U, 0xbcdd81f8bdd31fe1U, 0xbca6217a3ca6217aU,
  0x3e168e573d26217aU, 0x3dc1d1b93da6217aU, 0xbd41d1b9bd6b5a18U, 0x3cf93237bc98495bU,
  0x3d94d353bd724628U, 0xbe03852b3c98495bU, 0xbba6217a3e000f24U, 0xbc26217abceb5a18U,
  0xbdd31fe1bd48bdc9U, 0x3d800f243d26217aU, 0xbe0a713b3add81f8U, 0xbd5695e83dcc33d1U,
  0xbd1f356a3d98495bU, 0x3d18495b3da99782U, 0xbe1a045f3c98495bU, 0xbc5d81f8bd18495bU,
  0x3c98495bbd9f356aU, 0xbadd81f83e0a713bU, 0x3cb3f99a3dd695e8U, 0xbc0a713bbdb76fa2U,
  0x3e0c2c3fbd98495bU, 0x3dda0bf0bd793237U, 0x3ccfa9d93e168e57U, 0x3d8a713bbd48bdc9U,
  0x3e18495bbd915d4bU, 0xbdb3f99abe000f24U, 0xbd646e08bd94d353U, 0x3dc547c1bdfca83fU,
  0xbdb76fa23ba6217aU, 0xbc41d1b9bdd695e8U, 0xbde7e4103e08b637U, 0xbda997823c5d81f8U,
  0x3da997823cb3f99aU, 0xbb5d81f83d18495bU, 0x3c98495bbe0c2c3fU, 0xbd26217a3e1bbf63U,
  0xbd5d81f8bd18495bU, 0xbdfca83fbe0a713bU, 0xbe0fa247bb5d81f8U, 0xbe2b52863e14d353U,
  0x3db3f99a3e0c2c3fU, 0xbdd695e83e08b637U, 0x3e0fa2473cc1d1b9U, 0xbe1d7a663dad0d8aU,
  0x3cf93237bd9bbf63U, 0xbddd81f83e246676U, 0x3e2d0d8abe0de743U, 0xbadd81f83d5d81f8U,
  0x3cb3f99abd0a713bU, 0x3d793237bd33f99aU, 0xbdc8bdc93e392aa6U, 0x3d86fb333d98495bU,
  0x3e20f06ebdb76fa2U, 0xbd94d353bd83852bU, 0xbdda0bf0bdc547c1U, 0xbd6b5a183d03852bU,
  0xbd26217abd33f99aU, 0x3e0de7433e0c2c3fU, 0x3da2ab72be01ca27U, 0x3c26217a3e0de743U,
  0x3e000f24be03852bU, 0xbe0fa247bd26217aU, 0xbd3ae5a9bd1f356aU, 0xbd1f356abdd695e8U,
  0xbbdd81f8bbdd81f8U, 0x3d26217a3e03852bU, 0x3e33f99a3e1a045fU, 0xbc98495b3dc8bdc9U,
  0xbdc547c1bbdd81f8U, 0xbe4547c1be299782U, 0xbd8de743bd48bdc9U, 0x3e0c2c3f3deed020U,
  0xbcf932373add81f8U, 0xbdc1d1b9bc793237U, 0x3d26217abd1f356aU, 0x3d26217a3dc8bdc9U,
  0xbdc8bdc93c98495bU, 0xbd03852bbda2ab72U, 0x3dd31fe1bdda0bf0U, 0x3d4fa9d9bdbae5a9U,
  0x3d2d0d8abe22ab72U, 0x3dad0d8a3d4fa9d9U, 0x3add81f8bdf24628U, 0x3d3ae5a93db08392U,
  0x3e1d7a663c793237U, 0xbdcfa9d93d4fa9d9U, 0xbdad0d8a3e000f24U, 0xbd0a713b3d48bdc9U,
  0x3e27dc7ebd724628U, 0x3cc1d1b93d8de743U, 0x3d03852b3cc1d1b9U, 0xbdad0d8abe115d4bU,
  0xbde46e08bdeed020U, 0xbe1bbf63be20f06eU, 0xbd0a713b3e0fa247U, 0xbc26217a3c98495bU,
  0x3dda0bf0bca6217aU, 0xbde0f800bca6217aU, 0x3ccfa9d9bda2ab72U, 0xbd1f356abdb08392U,
  0x3d33f99a3dbae5a9U, 0xbe18495bbe168e57U, 0xbe4016b5bdb08392U, 0xbdfca83f3de7e410U,
  0xbe4c33d1be1bbf63U, 0x3d83852b3c98495bU, 0x3de7e410bd646e08U, 0x3d7246283cf93237U,
  0x3d6b5a183d8a713bU, 0x3df24628U, 0x3d48bdc9bd9bbf63U, 0xbc98495bbe0a713bU,
  0xbc41d1b9bdfca83fU, 0xbdda0bf03df93237U, 0x3d94d3533e2d0d8aU, 0xbc0a713b3cc1d1b9U,
  0x3e299782bba6217aU, 0xbe1a045f3e18495bU, 0x3dd695e8bdf24628U, 0x3da2ab723cc1d1b9U,
  0x3c26217abe22ab72U, 0xbe392aa63d4fa9d9U, 0x3d86fb33be308392U, 0xbe01ca273e1bbf63U,
  0xbdeb5a183db08392U, 0x3e2ec88e3c98495bU, 0xbd6b5a18bdbe5bb1U, 0x3d41d1b93e14d353U,
  0x3cc1d1b93c41d1b9U, 0x3d5695e83ca6217aU, 0xbd115d4b3e0c2c3fU, 0x3db76fa23c8a713bU,
  0x3e308392bd915d4bU, 0xbdf24628bd2d0d8aU, 0x3e22ab72bdeb5a18U, 0xbe2d0d8abda6217aU,
  0xbe1a045f3d115d4bU, 0x3e1a045f3d4fa9d9U, 0xbd4fa9d93db08392U, 0x3d94d353bdad0d8aU,
  0x3d98495bbe0fa247U, 0x3e2d0d8a3c41d1b9U, 0x3d26217abdfca83fU, 0x3e41d1b9bdd31fe1U,
  0x3db76fa2bc8a713bU, 0x3e376fa23ddd81f8U, 0xbc98495bbba6217aU, 0x3d33f99abcf93237U,
  0x3c26217abcdd81f8U, 0xbe41d1b93de7e410U, 0x3ceb5a1800000000U, 0xbd5d81f83d4fa9d9U,
  0x3e3e5bb13e323e96U, 0xbc26217abc5d81f8U, 0xbe246676bd5695e8U, 0xbd9bbf63bca6217aU,
  0xbe1d7a663dcfa9d9U, 0xbde0f800bd86fb33U, 0x3e20f06ebdd31fe1U, 0xbe115d4bbdbae5a9U,
  0x3d1f356abd115d4bU, 0xbdd31fe1bd800f24U, 0x3cc1d1b9bd41d1b9U, 0xbda6217a3e000f24U,
  0xbe0a713b3df5bc2fU, 0xbd94d3533e08b637U, 0xbe27dc7e3cdd81f8U, 0xbe1d7a66bd18495bU,
  0x3d800f243e000f24U, 0xbe05402f3d0a713bU, 0xbe03852b3e168e57U, 0x3e06fb33bd18495bU,
  0xbd18495b3c41d1b9U, 0x3ba6217abe1a045fU, 0xbe0a713bbd646e08U, 0xbd5d81f8be26217aU,
  0x3d5695e8bb5d81f8U, 0x3de7e4103dda0bf0U, 0xbdc8bdc9be299782U, 0xbe05402fU,
  0xbdcc33d13d03852bU, 0x3e115d4bbdfca83fU, 0xbe0c2c3fbdf5bc2fU, 0x3da99782bd915d4bU,
  0x3bdd81f8bcc1d1b9U, 0xbdc547c13b5d81f8U, 0xbdb3f99abdf5bc2fU, 0xbd86fb333dda0bf0U,
  0xbd8de7433e14d353U, 0xbc98495bbd4fa9d9U, 0x3de7e4103df24628U, 0x3c26217a3d646e08U,
  0x3d9f356a3ba6217aU, 0xbd5d81f8be246676U, 0xbdbe5bb1bd6b5a18U, 0x3dc8bdc9bcf93237U,
  0x3deed0203e05402fU, 0xbe1a045fbd94d353U, 0xbde7e4103c98495bU, 0x3dad0d8a3ba6217aU,
  0x3da6217abda2ab72U, 0xbe1a045fbe13184fU, 0x3da99782bba6217aU, 0xbc7932373dd695e8U,
  0x3d41d1b93da99782U, 0xbda2ab723e299782U, 0xbdbae5a93e0fa247U, 0x3ba6217a3da6217aU,
  0x3e18495bbdd31fe1U, 0x3c41d1b93df24628U, 0x3d41d1b9bccfa9d9U, 0x3db3f99a3d8a713bU,
  0x3d26217abd94d353U, 0x3d915d4bbc8a713bU, 0x3d7246283cdd81f8U, 0x3dbe5bb13dcfa9d9U,
  0xbdeb5a183da99782U, 0xbe0fa247bdeed020U, 0xbe115d4bbe000f24U, 0xbd8a713b3d33f99aU,
  0x3de0f800bddd81f8U, 0x3d94d353be14d353U, 0x3add81f8be115d4bU, 0xbd0a713bbd98495bU,
  0x3dbe5bb1be41d1b9U, 0x3d724628be3ae5a9U, 0x3dbe5bb13ceb5a18U, 0x3cb3f99abdf24628U,
  0xbdda0bf03da99782U, 0xbca6217a3da2ab72U, 0xbddd81f8bdcfa9d9U, 0x3d86fb33be05402fU,
  0x3ca6217a3d646e08U, 0xbdd31fe1bdb76fa2U, 0xbd5695e8be33f99aU, 0x3ccfa9d9bca6217aU,
  0xbd646e08bdf93237U, 0x3dfca83f3db08392U, 0x3de0f800be27dc7eU, 0x3e26217a3d800f24U,
  0x3e22ab723c41d1b9U, 0x3da2ab723e4016b5U, 0xbddd81f8bd793237U, 0x3d915d4bbe2d0d8aU,
  0x3e01ca27be06fb33U, 0xbd98495b3c5d81f8U, 0xbd4fa9d9bde7e410U, 0xbdbae5a9be22ab72U,
  0x3d3ae5a93e299782U, 0xbd5d81f8bd83852bU, 0xbcdd81f8bcb3f99aU, 0x3d48bdc93d48bdc9U,
  0xbe27dc7ebe168e57U, 0x3dc547c1bd83852bU, 0xbdcc33d1be13184fU, 0x3d33f99a3dcc33d1U,
  0x3e2ec88e3d98495bU, 0x3dda0bf0bd4fa9d9U, 0x3d33f99a3e0fa247U, 0xbe0fa2473cf93237U,
  0xbe13184fbe0a713bU, 0xbcc1d1b9bdb76fa2U, 0x3db76fa2bceb5a18U, 0xbd41d1b9bd98495bU,
  0x3b5d81f8bde0f800U, 0x3cb3f99a3e1bbf63U, 0x3ca6217abe01ca27U, 0x3e13184fbc793237U,
  0xbe2d0d8a3de7e410U, 0x3bdd81f83dd695e8U, 0x3da6217abbdd81f8U, 0xbe1a045fbe26217aU,
  0x3dcc33d13d8de743U, 0xbe1d7a66bd2d0d8aU, 0xbadd81f8bd4fa9d9U, 0xbd3ae5a93cdd81f8U,
  0xbccfa9d93dcfa9d9U, 0xbd793237be000f24U, 0xbe000f24be308392U, 0xbca6217a3c41d1b9U,
  0x3d94d353bddd81f8U, 0x3e33f99abd86fb33U, 0x3e08b6373e35b49eU, 0xbdf246283dcc33d1U,
  0x3c41d1b93e000f24U, 0x3d18495b3d6b5a18U, 0x3de46e08be392aa6U, 0x3deed020bdb08392U,
  0xbe3ca0adbe05402fU, 0xbbdd81f8be14d353U, 0xbdc8bdc93c98495bU, 0x3d33f99a3dda0bf0U,
  0x3d03852b3de7e410U, 0x3d41d1b9bba6217aU, 0xbe14d3533e03852bU, 0x3ddd81f83d915d4bU,
  0xbda997823c8a713bU, 0x3ccfa9d9bc98495bU, 0x3d800f24be2b5286U, 0xbe0a713b3d2d0d8aU,
  0xbdf93237bdb08392U, 0x3dc547c1bcf93237U, 0x3e1a045fbde46e08U, 0x3dbae5a93c793237U,
  0xbe1d7a66be168e57U, 0x3c26217abd8a713bU, 0x3cf932373d646e08U, 0xbe22ab72bd03852bU,
  0x3d48bdc93d86fb33U, 0x3e0de7433cf93237U, 0x3e1f356abd724628U, 0x3d18495b3dcfa9d9U,
  0xbdc8bdc93d4fa9d9U, 0xbcdd81f8be0a713bU, 0xbcc1d1b9bb5d81f8U, 0x3bdd81f8bd83852bU,
  0x3ccfa9d93dbae5a9U, 0xbe13184fbdf24628U, 0xbceb5a183db76fa2U, 0xbe0c2c3fbd5d81f8U,
  0xbdf932373d94d353U, 0x3de46e08bdbe5bb1U, 0xbdad0d8abe0de743U, 0xbe06fb33bdcc33d1U,
  0xbd98495b3ccfa9d9U, 0xbccfa9d9be2b5286U, 0x3c98495b3df93237U, 0xbd915d4bbba6217aU,
  0x3d1f356a3dfca83fU, 0x3df246283ccfa9d9U, 0xbd800f243da2ab72U, 0xbda99782bdfca83fU,
  0x3dc547c1be246676U, 0xbd86fb333d26217aU, 0xbe05402fbcb3f99aU, 0xbdb08392be27dc7eU,
  0x3d3ae5a93cf93237U, 0x3db76fa23de7e410U, 0x3d646e083dc8bdc9U, 0xbd8a713bbe18495bU,
  0x3e01ca27bdf5bc2fU, 0xbc26217abd915d4bU, 0x3d26217a3e3ae5a9U, 0x3c7932373d48bdc9U,
  0xbdc547c1bd4fa9d9U, 0xbdad0d8a3c5d81f8U, 0x3da2ab723db08392U, 0x3e0de7433e1bbf63U,
  0xbc5d81f83db76fa2U, 0x3d793237be13184fU, 0x3ccfa9d9be05402fU, 0xbe000f24be1a045fU,
  0xbe000f24bdb76fa2U, 0xbdbae5a9be000f24U, 0x3de0f800bde7e410U, 0xbdb76fa2bc8a713bU,
  0x3d03852bbdeed020U, 0xbdc8bdc93e000f24U, 0xbd1f356a3db76fa2U, 0x3e000f24bcc1d1b9U,
  0xbd115d4b3d18495bU, 0xbe000f243c26217aU, 0xbdda0bf03dbae5a9U, 0x3dc547c1be0fa247U,
  0xbda2ab72bccfa9d9U, 0x3ceb5a18be1bbf63U, 0x3dc1d1b93e0a713bU, 0xbe14d353bdc1d1b9U,
  0xbdad0d8abe08b637U, 0x3dad0d8a3d4fa9d9U, 0x3bdd81f8be246676U, 0xbc5d81f83d8a713bU,
  0x3d86fb333e1f356aU, 0xbe1d7a66bdbe5bb1U, 0xbd800f24be000f24U, 0xbde0f800bd3ae5a9U,
  0x3e27dc7ebde0f800U, 0xbd2d0d8abc793237U, 0x3db083923e1f356aU, 0xbd48bdc93e1a045fU,
  0x3d6b5a183dbe5bb1U, 0xbdf5bc2fbdda0bf0U, 0x3de0f800bdb76fa2U, 0x3ca6217a3d6b5a18U,
  0x3d33f99a3e48bdc9U, 0x3ca6217a3e4547c1U, 0x3de0f800bccfa9d9U, 0xbde0f8003cc1d1b9U,
  0x3c793237bdcc33d1U, 0xbdeed020be3e5bb1U, 0xbdb76fa2bde7e410U, 0x3dbae5a93d646e08U,
  0x3d9bbf633d94d353U, 0xbdcc33d13e1f356aU, 0xbe03852b3dcfa9d9U, 0x3e0c2c3fbadd81f8U,
  0x3e0fa2473de0f800U, 0x3dbe5bb1be27dc7eU, 0x3e246676be13184fU, 0xbda99782bdf5bc2fU,
  0xbe1f356abc26217aU, 0x3dcc33d1bda2ab72U, 0xbca6217a3e000f24U, 0x3e14d353bd33f99aU,
  0xbd26217a3ba6217aU, 0xbd98495b3b5d81f8U, 0x3e08b6373da2ab72U, 0x3df932373e2b5286U,
  0x3e0fa247be03852bU, 0xbd6b5a18bdd695e8U, 0xbde7e410bde46e08U, 0xbdfca83f3c0a713bU,
  0xbe13184fbe08b637U, 0x3e08b6373de7e410U, 0xbd8a713bbd915d4bU, 0xbdc8bdc93dfca83fU,
  0x3d83852bbca6217aU, 0xbd800f24bcb3f99aU, 0x3e2ec88e3e000f24U, 0x3e0c2c3fbdeed020U,
  0xbceb5a183c0a713bU, 0x3dcc33d1bd1f356aU, 0xbe000f243d41d1b9U, 0x3d646e083db3f99aU,
  0x3db76fa2bd83852bU, 0xbd6b5a18be1a045fU, 0x3d41d1b9bdeed020U, 0x3dbe5bb1bcf93237U,
  0x3d7246283e26217aU, 0x3d94d353bdeb5a18U, 0x3da99782be0c2c3fU, 0xbdeed0203d5d81f8U,
  0x3cc1d1b9be26217aU, 0x3e0a713b3c41d1b9U, 0xbe06fb33bd646e08U, 0xbd0a713bbc793237U,
  0x3da997823ba6217aU, 0x3e168e573c26217aU, 0x3da6217abd5d81f8U, 0xbda99782bd6b5a18U,
  0xbe000f243e05402fU, 0x3cdd81f8bdd31fe1U, 0xbe308392be20f06eU, 0xbddd81f8be0fa247U,
  0xbe06fb33be3e5bb1U, 0xbd724628bda99782U, 0x3d26217abdf24628U, 0xbd6b5a18bc5d81f8U,
  0x3dcfa9d93d8a713bU, 0x3db083923e0c2c3fU, 0xbcdd81f8bc0a713bU, 0xbdbe5bb13d9bbf63U,
  0xbc26217abcf93237U, 0xbd94d353be000f24U, 0x3d9f356abdad0d8aU, 0xbe246676bdcc33d1U,
  0x3e33f99abd115d4bU, 0x3ceb5a18bdb76fa2U, 0xbbdd81f8be33f99aU, 0x3bdd81f83bdd81f8U,
  0x3dad0d8abc8a713bU, 0xbdeb5a18bd0a713bU, 0xbdbe5bb13cc1d1b9U, 0xbd800f243dad0d8aU,
  0xbd26217abc26217aU, 0x3dd31fe1bd115d4bU, 0xbd33f99abccfa9d9U, 0x3bdd81f83d5695e8U,
  0xbe01ca27bd793237U, 0x3e41d1b9bba6217aU, 0xbdda0bf0bdeed020U, 0xbdf932373d2d0d8aU,
  0xbd26217a3b5d81f8U, 0xbe392aa6be438cbdU, 0x3dc1d1b93c793237U, 0xbc41d1b93dad0d8aU,
  0x3dc547c13d26217aU, 0x3dd31fe1bda2ab72U, 0x3dc8bdc9bbdd81f8U, 0xbdc8bdc93da99782U,
  0xbd48bdc93b5d81f8U, 0xbceb5a183c26217aU, 0x3dc8bdc93c98495bU, 0xbe27dc7e3d6b5a18U,
  0x3c0a713b3e01ca27U, 0xbc26217abceb5a18U, 0xbda99782be03852bU, 0x3d115d4b3d94d353U,
  0x3d9bbf633ccfa9d9U, 0x3e000f243e01ca27U, 0xbdb76fa23d793237U, 0xbcb3f99a3e41d1b9U,
  0xbb5d81f8bd98495bU, 0x3de0f800bccfa9d9U, 0x3e18495b3dd31fe1U, 0xbcc1d1b93e115d4bU,
  0x3d8de7433dbe5bb1U, 0x3dd695e83e0fa247U, 0xbe14d353bdf93237U, 0x3da2ab72bdd31fe1U,
  0xbdbe5bb13d03852bU, 0xbdbe5bb13bdd81f8U, 0xbe1bbf63bd724628U, 0xbc793237be01ca27U,
  0xbd26217abd5695e8U, 0xbdbe5bb1bdbae5a9U, 0xbda6217abd6b5a18U, 0xbdf93237bd86fb33U,
  0xbdfca83fbdb08392U, 0xbcf93237bd793237U, 0x3dc547c13c0a713bU, 0xbdf24628bdcfa9d9U,
  0x3d8a713bbe08b637U, 0x3d26217abd2d0d8aU, 0x3cb3f99abe1f356aU, 0xbe168e57bd26217aU,
  0xbe4016b5bd115d4bU, 0x3d5d81f8bdd31fe1U, 0x3e14d3533e13184fU, 0x3deed020bd8de743U,
  0x3d2d0d8a3b5d81f8U, 0x3dd31fe1bc26217aU, 0xbbdd81f83dbe5bb1U, 0x3c41d1b93d115d4bU,
  0x3e06fb33be1bbf63U, 0xbdf24628be115d4bU, 0x3ca6217abcf93237U, 0xbd98495b3d724628U,
